<pad>	0
<s>	0
</s>	0
<unk>	0
in	-0
▁a	-1
th	-2
oo	-3
er	-4
en	-5
▁f	-6
on	-7
st	-8
nd	-9
at	-10
▁b	-11
ing	-12
ed	-13
ou	-14
ar	-15
▁w	-16
▁th	-17
re	-18
ch	-19
▁s	-20
or	-21
▁c	-22
▁and	-23
▁S	-24
is	-25
al	-26
ic	-27
▁t	-28
it	-29
▁l	-30
▁h	-31
▁p	-32
om	-33
▁T	-34
▁o	-35
▁the	-36
oom	-37
es	-38
an	-39
▁C	-40
room	-41
il	-42
▁D	-43
▁in	-44
ac	-45
ion	-46
▁to	-47
ool	-48
ent	-49
ith	-50
▁d	-51
▁with	-52
▁m	-53
as	-54
el	-55
chool	-56
▁of	-57
▁School	-58
▁A	-59
▁B	-60
et	-61
▁Th	-62
ric	-63
ow	-64
ge	-65
ist	-66
ul	-67
ome	-68
▁g	-69
▁N	-70
rict	-71
iv	-72
istrict	-73
▁District	-74
gh	-75
▁y	-76
oor	-77
le	-78
▁|	-79
▁O	-80
▁P	-81
▁R	-82
▁n	-83
▁F	-84
▁is	-85
▁H	-86
▁room	-87
▁st	-88
▁for	-89
ew	-90
ath	-91
ec	-92
▁home	-93
▁M	-94
ation	-95
▁L	-96
ain	-97
▁2	-98
▁you	-99
▁E	-100
id	-101
igh	-102
▁W	-103
am	-104
ers	-105
▁fl	-106
ur	-107
▁The	-108
edroom	-109
ard	-110
ay	-111
nt	-112
ly	-113
▁re	-114
▁sp	-115
▁e	-116
▁bath	-117
ous	-118
▁floor	-119
▁be	-120
▁u	-121
ace	-122
oc	-123
pl	-124
▁on	-125
ir	-126
ut	-127
ood	-128
ated	-129
ad	-130
▁pr	-131
▁NJ	-132
▁bedroom	-133
ount	-134
▁0	-135
os	-136
ov	-137
▁this	-138
ce	-139
▁1	-140
own	-141
itch	-142
out	-143
itchen	-144
op	-145
em	-146
age	-147
art	-148
eat	-149
▁r	-150
▁off	-151
▁Of	-152
▁&	-153
ert	-154
un	-155
▁k	-156
res	-157
hi	-158
ast	-159
ess	-160
ol	-161
iving	-162
ack	-163
▁are	-164
▁G	-165
ot	-166
ull	-167
▁sh	-168
▁kitchen	-169
ity	-170
ight	-171
▁an	-172
▁new	-173
ab	-174
and	-175
arge	-176
ry	-177
ional	-178
▁3	-179
▁al	-180
amil	-181
ak	-182
los	-183
▁This	-184
if	-185
lu	-186
▁living	-187
▁has	-188
▁Ch	-189
ite	-190
ate	-191
▁up	-192
rou	-193
▁your	-194
ect	-195
▁com	-196
hip	-197
▁I	-198
ust	-199
ill	-200
ran	-201
▁V	-202
▁Count	-203
▁08	-204
▁v	-205
ship	-206
ind	-207
ice	-208
▁full	-209
ep	-210
ub	-211
▁fr	-212
ve	-213
▁large	-214
▁Town	-215
im	-216
▁County	-217
▁Township	-218
▁le	-219
all	-220
uc	-221
▁back	-222
ational	-223
ide	-224
▁feat	-225
▁space	-226
▁en	-227
▁op	-228
ant	-229
ures	-230
▁bedrooms	-231
▁con	-232
ish	-233
ining	-234
ort	-235
▁clos	-236
ious	-237
▁ent	-238
erf	-239
qu	-240
▁St	-241
ver	-242
▁or	-243
amily	-244
▁ap	-245
aut	-246
reat	-247
▁ex	-248
▁ad	-249
▁Ed	-250
▁pl	-251
ire	-252
▁ac	-253
▁4	-254
ies	-255
est	-256
alk	-257
▁J	-258
iful	-259
autiful	-260
ell	-261
▁inc	-262
oy	-263
ement	-264
ment	-265
ial	-266
wood	-267
▁out	-268
▁U	-269
ven	-270
eg	-271
iz	-272
▁Educ	-273
vel	-274
acious	-275
lud	-276
▁that	-277
asement	-278
ark	-279
▁features	-280
arage	-281
ach	-282
▁loc	-283
ap	-284
▁mo	-285
wn	-286
▁area	-287
arter	-288
▁dining	-289
▁as	-290
inish	-291
▁includ	-292
▁offers	-293
▁all	-294
▁bathroom	-295
ere	-296
ian	-297
▁ne	-298
▁stor	-299
▁Charter	-300
dit	-301
lic	-302
▁at	-303
▁it	-304
erfect	-305
▁family	-306
ublic	-307
eck	-308
▁walk	-309
▁garage	-310
ook	-311
rough	-312
▁ch	-313
▁closet	-314
▁basement	-315
▁07	-316
▁open	-317
▁New	-318
air	-319
able	-320
▁spacious	-321
iss	-322
ocational	-323
▁Vocational	-324
ont	-325
▁su	-326
way	-327
▁beautiful	-328
wo	-329
▁through	-330
less	-331
cess	-332
inished	-333
▁priv	-334
▁floors	-335
ces	-336
ings	-337
▁Public	-338
▁car	-339
plian	-340
▁level	-341
aster	-342
ardwood	-343
▁storage	-344
▁perfect	-345
indow	-346
▁Com	-347
▁Reg	-348
▁count	-349
▁fire	-350
▁Regional	-351
▁bo	-352
place	-353
IN	-354
▁door	-355
aint	-356
▁upd	-357
und	-358
ive	-359
ertain	-360
ree	-361
arm	-362
ile	-363
eil	-364
ake	-365
▁bu	-366
ove	-367
pliances	-368
▁from	-369
unity	-370
ond	-371
erv	-372
erty	-373
ical	-374
ech	-375
ig	-376
▁light	-377
joy	-378
round	-379
our	-380
operty	-381
yard	-382
▁deck	-383
ble	-384
ower	-385
▁yard	-386
▁window	-387
▁K	-388
▁int	-389
echn	-390
▁wh	-391
ER	-392
ouse	-393
▁entertain	-394
ustom	-395
▁And	-396
▁Off	-397
▁two	-398
ning	-399
ized	-400
▁Comm	-401
inet	-402
▁appliances	-403
▁ceil	-404
▁5	-405
▁Education	-406
port	-407
▁wood	-408
▁fireplace	-409
abinet	-410
▁backyard	-411
ary	-412
▁am	-413
io	-414
ren	-415
▁own	-416
echnical	-417
▁will	-418
one	-419
ditional	-420
▁Ave	-421
old	-422
ater	-423
▁updated	-424
aund	-425
veni	-426
aundry	-427
cean	-428
00	-429
▁throughout	-430
▁property	-431
ton	-432
bor	-433
▁private	-434
▁hardwood	-435
ely	-436
AT	-437
▁(	-438
elc	-439
..	-440
▁cabinet	-441
▁des	-442
▁Y	-443
atio	-444
▁high	-445
▁one	-446
▁lot	-447
ices	-448
▁access	-449
side	-450
ral	-451
OO	-452
▁j	-453
▁located	-454
▁se	-455
▁by	-456
ra	-457
▁un	-458
ervices	-459
plet	-460
▁Office	-461
▁Services	-462
so	-463
ure	-464
ED	-465
▁Technical	-466
▁High	-467
▁custom	-468
▁Room	-469
ranite	-470
ter	-471
ash	-472
▁Sp	-473
ities	-474
airs	-475
▁Be	-476
▁Ocean	-477
ild	-478
▁Pr	-479
▁shop	-480
ass	-481
ll	-482
▁great	-483
end	-484
irst	-485
▁Br	-486
enc	-487
▁finished	-488
ence	-489
▁patio	-490
eel	-491
ther	-492
▁qu	-493
▁Commiss	-494
ping	-495
▁into	-496
!!	-497
▁well	-498
ear	-499
land	-500
▁windows	-501
enty	-502
▁entertaining	-503
▁20	-504
▁over	-505
▁Ac	-506
door	-507
ainless	-508
▁Dr	-509
▁flooring	-510
▁additional	-511
▁Up	-512
▁cent	-513
▁br	-514
▁complet	-515
▁front	-516
us	-517
ple	-518
ilt	-519
der	-520
▁master	-521
▁laundry	-522
of	-523
▁also	-524
▁Commission	-525
▁conveni	-526
ance	-527
▁pool	-528
▁Home	-529
ey	-530
ave	-531
▁tr	-532
▁suite	-533
artment	-534
se	-535
▁Dep	-536
▁granite	-537
▁sec	-538
▁comm	-539
▁att	-540
oof	-541
▁house	-542
▁park	-543
ND	-544
iew	-545
▁enjoy	-546
▁just	-547
▁heat	-548
outh	-549
int	-550
ld	-551
mal	-552
ax	-553
ult	-554
elcome	-555
▁lead	-556
IT	-557
▁shopping	-558
▁Rd	-559
▁can	-560
enced	-561
▁first	-562
enov	-563
▁el	-564
▁-	-565
ine	-566
ik	-567
reet	-568
orch	-569
▁offer	-570
AR	-571
▁plenty	-572
▁more	-573
▁stainless	-574
stairs	-575
olon	-576
iding	-577
▁Department	-578
▁been	-579
▁office	-580
▁Bath	-581
▁water	-582
ong	-583
▁dr	-584
ener	-585
▁In	-586
▁gas	-587
▁Welcome	-588
olonial	-589
ING	-590
▁sun	-591
anch	-592
oint	-593
ady	-594
▁Bedroom	-595
yl	-596
EN	-597
▁sit	-598
▁app	-599
yst	-600
20	-601
▁Educational	-602
ough	-603
AC	-604
ently	-605
▁exp	-606
▁doors	-607
od	-608
▁prov	-609
ystem	-610
ural	-611
ully	-612
ildren	-613
amilies	-614
um	-615
adem	-616
▁Kitchen	-617
▁Academ	-618
ink	-619
▁080	-620
▁Academy	-621
▁porch	-622
ore	-623
uring	-624
ES	-625
▁main	-626
ct	-627
▁boast	-628
▁renov	-629
ached	-630
gr	-631
▁outdoor	-632
ork	-633
▁fenced	-634
▁Sh	-635
vers	-636
▁Children	-637
▁Families	-638
▁second	-639
hich	-640
▁shower	-641
sc	-642
▁built	-643
▁Un	-644
▁eat	-645
ib	-646
urn	-647
.5	-648
▁which	-649
iting	-650
ooking	-651
▁tran	-652
ertop	-653
yle	-654
▁Mon	-655
day	-656
ans	-657
▁087	-658
▁nat	-659
▁find	-660
fort	-661
▁eas	-662
portunity	-663
▁En	-664
▁charm	-665
▁location	-666
▁Park	-667
▁newer	-668
▁ceiling	-669
ON	-670
OU	-671
▁school	-672
ouble	-673
▁have	-674
▁system	-675
▁There	-676
▁year	-677
grad	-678
▁bl	-679
▁baths	-680
ained	-681
ail	-682
▁steel	-683
▁maint	-684
iver	-685
▁6	-686
eway	-687
lass	-688
▁countertop	-689
▁sl	-690
ock	-691
OR	-692
▁land	-693
▁so	-694
▁view	-695
▁add	-696
ting	-697
imary	-698
▁plan	-699
▁roof	-700
▁complete	-701
▁rec	-702
▁renovated	-703
▁Great	-704
ighbor	-705
▁ma	-706
▁rel	-707
oyer	-708
iveway	-709
ike	-710
▁its	-711
▁TH	-712
▁formal	-713
▁ext	-714
▁opportunity	-715
▁gener	-716
▁tile	-717
▁Bo	-718
irable	-719
▁he	-720
▁close	-721
▁ready	-722
rick	-723
▁comfort	-724
▁co	-725
▁tub	-726
▁boasts	-727
▁not	-728
ior	-729
scap	-730
▁ceilings	-731
▁Fl	-732
▁Large	-733
▁River	-734
▁cabinets	-735
▁natural	-736
are	-737
LL	-738
▁neighbor	-739
▁countertops	-740
over	-741
hood	-742
▁Loc	-743
▁see	-744
▁top	-745
▁bar	-746
▁relax	-747
versized	-748
dern	-749
▁Cent	-750
▁including	-751
▁077	-752
for	-753
▁lighting	-754
▁make	-755
▁Living	-756
EW	-757
▁miss	-758
ants	-759
dition	-760
▁double	-761
▁sep	-762
▁ab	-763
▁Pl	-764
pt	-765
very	-766
ud	-767
mouth	-768
ign	-769
▁upgrad	-770
▁neighborhood	-771
ue	-772
ase	-773
OM	-774
▁For	-775
▁includes	-776
▁island	-777
▁desirable	-778
▁today	-779
▁Full	-780
ick	-781
▁closets	-782
lus	-783
▁Monmouth	-784
▁Master	-785
▁driveway	-786
jor	-787
▁air	-788
ways	-789
▁ample	-790
▁modern	-791
▁Clos	-792
▁7	-793
ST	-794
aking	-795
▁rest	-796
▁center	-797
orn	-798
inut	-799
▁foyer	-800
ille	-801
ery	-802
▁bathrooms	-803
▁landscap	-804
▁beach	-805
iet	-806
▁im	-807
idge	-808
▁City	-809
▁include	-810
▁Don	-811
▁Beautiful	-812
ef	-813
ington	-814
arate	-815
▁paint	-816
bur	-817
zy	-818
aur	-819
▁det	-820
uite	-821
AN	-822
▁trans	-823
▁street	-824
uge	-825
unning	-826
resh	-827
▁easy	-828
oss	-829
▁gr	-830
▁All	-831
ator	-832
▁community	-833
▁oversized	-834
▁maintained	-835
▁Enjoy	-836
▁res	-837
ersey	-838
▁major	-839
alf	-840
▁schools	-841
ape	-842
▁overl	-843
▁featuring	-844
▁primary	-845
▁Jersey	-846
▁Hill	-847
ris	-848
▁set	-849
ible	-850
cept	-851
iel	-852
▁As	-853
▁every	-854
▁three	-855
any	-856
aurants	-857
▁With	-858
idd	-859
orge	-860
inutes	-861
▁hall	-862
eal	-863
▁NEW	-864
▁sized	-865
aw	-866
▁9	-867
▁gu	-868
▁Con	-869
ville	-870
ts	-871
orgeous	-872
per	-873
▁IN	-874
ights	-875
▁088	-876
ank	-877
ility	-878
▁AND	-879
ize	-880
ecial	-881
▁NY	-882
▁lov	-883
pet	-884
▁move	-885
ield	-886
▁generous	-887
reak	-888
▁rooms	-889
▁You	-890
▁ranch	-891
▁ide	-892
xt	-893
ream	-894
▁need	-895
az	-896
▁Ad	-897
▁fully	-898
▁views	-899
OOM	-900
▁unit	-901
▁separate	-902
▁design	-903
▁10	-904
▁wall	-905
▁Wh	-906
▁end	-907
RE	-908
ons	-909
▁quiet	-910
▁cozy	-911
▁half	-912
▁8	-913
▁pa	-914
ux	-915
▁On	-916
▁both	-917
fast	-918
▁sink	-919
▁restaurants	-920
reakfast	-921
ides	-922
ip	-923
▁Floor	-924
ead	-925
ought	-926
▁ideal	-927
/2	-928
▁plus	-929
▁work	-930
▁near	-931
▁Mor	-932
▁NYC	-933
▁rear	-934
ford	-935
ound	-936
ential	-937
acy	-938
AL	-939
ime	-940
asher	-941
▁guest	-942
onus	-943
▁shed	-944
reen	-945
uch	-946
uated	-947
▁heater	-948
oms	-949
▁070	-950
nter	-951
▁counter	-952
ould	-953
▁Midd	-954
ection	-955
▁show	-956
▁inv	-957
uxur	-958
▁carpet	-959
▁Toms	-960
▁beautifully	-961
led	-962
ates	-963
▁charming	-964
▁Wood	-965
▁rem	-966
▁Colonial	-967
ox	-968
▁Board	-969
▁offering	-970
▁201	-971
▁West	-972
▁Central	-973
▁cabinetry	-974
▁Upstairs	-975
ulous	-976
▁2-	-977
ather	-978
ee	-979
erson	-980
ost	-981
▁Family	-982
▁extra	-983
▁bright	-984
erg	-985
▁hot	-986
▁down	-987
▁Close	-988
ag	-989
▁minutes	-990
▁Union	-991
▁convenience	-992
IS	-993
les	-994
▁colonial	-995
up	-996
mer	-997
▁TO	-998
▁stunning	-999
▁Located	-1000
▁attic	-1001
),	-1002
▁leads	-1003
▁style	-1004
GE	-1005
▁provides	-1006
ress	-1007
▁privacy	-1008
▁Just	-1009
▁Dining	-1010
▁At	-1011
ched	-1012
AS	-1013
son	-1014
▁BR	-1015
▁flow	-1016
▁ref	-1017
▁huge	-1018
fter	-1019
ectric	-1020
▁backs	-1021
▁parking	-1022
▁Co	-1023
▁mold	-1024
▁cur	-1025
▁us	-1026
▁but	-1027
▁sur	-1028
▁Morris	-1029
▁play	-1030
▁right	-1031
▁Tr	-1032
▁electric	-1033
▁attached	-1034
odel	-1035
antry	-1036
IC	-1037
ilities	-1038
▁highways	-1039
▁there	-1040
▁luxur	-1041
▁Step	-1042
▁expans	-1043
inyl	-1044
ault	-1045
enn	-1046
▁breakfast	-1047
orner	-1048
▁0875	-1049
▁recess	-1050
▁glass	-1051
aulted	-1052
▁central	-1053
▁brand	-1054
▁was	-1055
▁fresh	-1056
car	-1057
otential	-1058
field	-1059
tion	-1060
▁much	-1061
portation	-1062
▁inside	-1063
▁inviting	-1064
▁2.5	-1065
▁van	-1066
ful	-1067
ie	-1068
▁Special	-1069
▁Ex	-1070
estled	-1071
▁gorgeous	-1072
arden	-1073
▁painted	-1074
▁years	-1075
▁counters	-1076
lub	-1077
▁dream	-1078
▁part	-1079
▁ret	-1080
sh	-1081
▁pre	-1082
enities	-1083
▁sum	-1084
▁Hardwood	-1085
▁bonus	-1086
▁recessed	-1087
plash	-1088
thing	-1089
...	-1090
▁lovely	-1091
▁away	-1092
▁Beach	-1093
▁many	-1094
▁outside	-1095
▁Op	-1096
▁side	-1097
▁lif	-1098
▁condition	-1099
erry	-1100
OME	-1101
LE	-1102
▁gather	-1103
▁potential	-1104
▁very	-1105
▁entry	-1106
den	-1107
▁overlooking	-1108
▁THE	-1109
hold	-1110
▁Free	-1111
ual	-1112
▁Spacious	-1113
▁warm	-1114
urning	-1115
▁Bu	-1116
▁while	-1117
▁Walk	-1118
suite	-1119
▁Nor	-1120
oad	-1121
rig	-1122
▁being	-1123
▁11	-1124
que	-1125
▁transportation	-1126
▁Col	-1127
▁surround	-1128
off	-1129
▁Out	-1130
▁pantry	-1131
▁It	-1132
▁paver	-1133
og	-1134
▁ST	-1135
▁convenient	-1136
▁corner	-1137
▁cul	-1138
▁.	-1139
▁Bedrooms	-1140
ex	-1141
▁amenities	-1142
▁Freehold	-1143
yer	-1144
▁size	-1145
▁Bl	-1146
▁expansive	-1147
▁12	-1148
ITH	-1149
▁eleg	-1150
te	-1151
ront	-1152
▁Cam	-1153
▁poss	-1154
▁WITH	-1155
▁und	-1156
▁where	-1157
▁Ct	-1158
▁brick	-1159
▁stone	-1160
VAC	-1161
oft	-1162
▁,	-1163
OW	-1164
▁step	-1165
▁Bay	-1166
stor	-1167
▁used	-1168
av	-1169
▁pe	-1170
▁heart	-1171
erful	-1172
▁Ln	-1173
▁Come	-1174
▁upgraded	-1175
overed	-1176
▁commut	-1177
bo	-1178
CH	-1179
▁train	-1180
elcom	-1181
▁vaulted	-1182
▁lay	-1183
▁nice	-1184
bedroom	-1185
del	-1186
▁Har	-1187
rance	-1188
▁ground	-1189
ground	-1190
inal	-1191
▁town	-1192
▁lower	-1193
▁slid	-1194
isc	-1195
ft	-1196
ulti	-1197
▁Gl	-1198
▁cont	-1199
artz	-1200
ENT	-1201
▁burning	-1202
inc	-1203
▁Brick	-1204
ict	-1205
▁leading	-1206
sex	-1207
▁even	-1208
owder	-1209
br	-1210
▁Newer	-1211
eet	-1212
▁backsplash	-1213
▁wa	-1214
ia	-1215
▁(20	-1216
▁HVAC	-1217
▁ser	-1218
▁inter	-1219
▁South	-1220
DC	-1221
▁bay	-1222
etic	-1223
ale	-1224
▁OF	-1225
▁JDC	-1226
▁lots	-1227
▁Back	-1228
▁vinyl	-1229
onderful	-1230
ION	-1231
▁most	-1232
▁layout	-1233
▁AC	-1234
house	-1235
▁sitting	-1236
▁imp	-1237
▁IS	-1238
▁Mar	-1239
▁only	-1240
▁Lake	-1241
▁til	-1242
▁Two	-1243
ley	-1244
▁Cape	-1245
ins	-1246
▁peace	-1247
ET	-1248
aces	-1249
ff	-1250
ule	-1251
▁Conveni	-1252
evel	-1253
ryer	-1254
▁welcom	-1255
▁Tw	-1256
▁vanity	-1257
▁ins	-1258
▁Q	-1259
▁opens	-1260
▁inst	-1261
▁Feat	-1262
▁Basement	-1263
▁enter	-1264
▁other	-1265
▁Is	-1266
▁ft	-1267
▁entrance	-1268
▁summer	-1269
22	-1270
▁sk	-1271
▁fun	-1272
▁upstairs	-1273
▁situated	-1274
▁Man	-1275
de	-1276
▁along	-1277
▁Bar	-1278
▁no	-1279
▁sliding	-1280
ose	-1281
terior	-1282
bury	-1283
▁act	-1284
▁resid	-1285
akes	-1286
EL	-1287
▁could	-1288
▁ar	-1289
▁finish	-1290
itt	-1291
▁blend	-1292
amilton	-1293
other	-1294
▁Hamilton	-1295
chedule	-1296
▁four	-1297
▁Upd	-1298
IV	-1299
OOR	-1300
erc	-1301
▁North	-1302
▁detached	-1303
rant	-1304
▁block	-1305
▁sought	-1306
rown	-1307
lington	-1308
▁HOME	-1309
finished	-1310
uns	-1311
▁Bur	-1312
▁Middles	-1313
▁Twp	-1314
▁Middlesex	-1315
IL	-1316
10	-1317
▁Camden	-1318
aced	-1319
▁acc	-1320
▁gatherings	-1321
▁parks	-1322
azing	-1323
▁guests	-1324
ped	-1325
lin	-1326
▁appoint	-1327
odeled	-1328
▁Es	-1329
▁white	-1330
anel	-1331
clos	-1332
''	-1333
▁085	-1334
▁covered	-1335
▁furn	-1336
boro	-1337
▁sq	-1338
▁like	-1339
its	-1340
▁owner	-1341
▁Ap	-1342
▁East	-1343
▁retreat	-1344
ific	-1345
▁Ele	-1346
▁cour	-1347
▁Essex	-1348
▁model	-1349
▁bed	-1350
▁acre	-1351
▁place	-1352
▁Open	-1353
▁ut	-1354
alled	-1355
rench	-1356
eep	-1357
▁sold	-1358
▁sc	-1359
▁some	-1360
▁upgrades	-1361
eticulous	-1362
ents	-1363
23	-1364
▁Additional	-1365
).	-1366
▁An	-1367
▁Eat	-1368
Th	-1369
amic	-1370
▁looking	-1371
ownt	-1372
▁interior	-1373
▁possib	-1374
▁Ar	-1375
owntown	-1376
▁creat	-1377
▁den	-1378
▁landscaping	-1379
▁molding	-1380
▁Burlington	-1381
▁old	-1382
▁under	-1383
▁aw	-1384
asis	-1385
▁story	-1386
▁Bor	-1387
ular	-1388
▁1/2	-1389
▁powder	-1390
ATH	-1391
▁seren	-1392
▁detail	-1393
oxim	-1394
irect	-1395
▁tre	-1396
21	-1397
met	-1398
ler	-1399
▁15	-1400
▁tops	-1401
▁French	-1402
▁last	-1403
▁Car	-1404
▁relaxing	-1405
▁Garage	-1406
▁garden	-1407
▁del	-1408
▁Harbor	-1409
UR	-1410
act	-1411
wick	-1412
GH	-1413
▁landscaped	-1414
amin	-1415
▁section	-1416
30	-1417
▁newly	-1418
▁LO	-1419
let	-1420
▁owners	-1421
ouch	-1422
▁multi	-1423
ourmet	-1424
▁needs	-1425
▁after	-1426
▁recre	-1427
▁areas	-1428
▁quartz	-1429
▁Mill	-1430
▁equ	-1431
▁siding	-1432
▁do	-1433
▁Custom	-1434
▁dist	-1435
▁Updated	-1436
▁installed	-1437
bath	-1438
ROOM	-1439
▁appeal	-1440
▁ROOM	-1441
▁within	-1442
24	-1443
▁Ber	-1444
▁day	-1445
▁FL	-1446
▁Community	-1447
▁Pre	-1448
uly	-1449
▁bus	-1450
▁stair	-1451
▁wonderful	-1452
anc	-1453
▁tiled	-1454
▁Rec	-1455
ating	-1456
ise	-1457
▁touch	-1458
▁Bathroom	-1459
EC	-1460
▁waiting	-1461
▁any	-1462
▁Laundry	-1463
ason	-1464
▁PR	-1465
40	-1466
ier	-1467
▁remodeled	-1468
▁updates	-1469
▁freshly	-1470
▁Am	-1471
UT	-1472
▁$	-1473
▁rent	-1474
▁exterior	-1475
▁z	-1476
▁oasis	-1477
▁washer	-1478
▁inve	-1479
▁love	-1480
▁long	-1481
olid	-1482
▁beaches	-1483
eton	-1484
▁another	-1485
▁Jack	-1486
!!!	-1487
▁skyl	-1488
aming	-1489
ept	-1490
▁those	-1491
amless	-1492
▁making	-1493
▁Colle	-1494
▁19	-1495
▁18	-1496
▁designed	-1497
▁added	-1498
▁club	-1499
▁stove	-1500
▁To	-1501
▁ON	-1502
▁possibilities	-1503
▁setting	-1504
▁included	-1505
▁Al	-1506
▁unfinished	-1507
eramic	-1508
by	-1509
31	-1510
▁3-	-1511
placed	-1512
ERS	-1513
▁crown	-1514
sac	-1515
▁BE	-1516
UL	-1517
erator	-1518
con	-1519
▁College	-1520
eticulously	-1521
ets	-1522
▁seamless	-1523
red	-1524
AY	-1525
OUS	-1526
unswick	-1527
gg	-1528
▁recently	-1529
▁Brunswick	-1530
rink	-1531
case	-1532
ster	-1533
▁Hills	-1534
▁heated	-1535
ience	-1536
ob	-1537
rigerator	-1538
▁must	-1539
iend	-1540
▁dec	-1541
▁Formal	-1542
ations	-1543
▁providing	-1544
▁panel	-1545
▁Main	-1546
▁Princ	-1547
▁entertainment	-1548
ison	-1549
▁sliders	-1550
don	-1551
▁adj	-1552
ially	-1553
▁Sit	-1554
▁tranqu	-1555
eller	-1556
ofess	-1557
ade	-1558
▁abund	-1559
▁Are	-1560
ofessional	-1561
▁downtown	-1562
ole	-1563
▁BATH	-1564
ooks	-1565
ately	-1566
ruc	-1567
EM	-1568
▁pict	-1569
▁Sec	-1570
▁SS	-1571
▁nestled	-1572
oot	-1573
▁serene	-1574
anded	-1575
raw	-1576
▁acres	-1577
▁spl	-1578
▁stall	-1579
ne	-1580
▁sw	-1581
ittle	-1582
▁sunroom	-1583
ber	-1584
▁short	-1585
▁concept	-1586
▁greet	-1587
EST	-1588
▁Red	-1589
▁distance	-1590
closed	-1591
50	-1592
quare	-1593
▁Property	-1594
leaming	-1595
▁replaced	-1596
ester	-1597
ro	-1598
ame	-1599
▁feel	-1600
▁direct	-1601
▁endless	-1602
ique	-1603
▁Ple	-1604
▁relaxation	-1605
▁Way	-1606
▁yours	-1607
ling	-1608
▁Ent	-1609
▁equip	-1610
▁residence	-1611
olf	-1612
▁Ph	-1613
ym	-1614
▁amazing	-1615
iginal	-1616
▁Roof	-1617
▁Egg	-1618
▁public	-1619
▁Location	-1620
▁Ranch	-1621
▁luxury	-1622
acent	-1623
antic	-1624
▁time	-1625
▁fi	-1626
▁lin	-1627
ULL	-1628
rd	-1629
▁original	-1630
▁coff	-1631
▁wat	-1632
▁host	-1633
illed	-1634
▁allow	-1635
▁generously	-1636
cester	-1637
▁completely	-1638
chie	-1639
▁sub	-1640
▁Glou	-1641
▁highly	-1642
▁conveniently	-1643
aple	-1644
▁Gloucester	-1645
▁1.5	-1646
▁appointment	-1647
▁Gr	-1648
ah	-1649
▁First	-1650
▁best	-1651
▁Achie	-1652
ird	-1653
▁mar	-1654
▁Jackson	-1655
▁activ	-1656
▁addition	-1657
▁Mount	-1658
▁Atl	-1659
▁sits	-1660
enance	-1661
light	-1662
▁14	-1663
▁Bridge	-1664
▁rm	-1665
ARD	-1666
af	-1667
IGH	-1668
▁SE	-1669
ph	-1670
▁Sun	-1671
▁THIS	-1672
▁funct	-1673
ions	-1674
▁than	-1675
estyle	-1676
▁Finished	-1677
▁elegant	-1678
ingle	-1679
▁Point	-1680
ici	-1681
▁soaking	-1682
▁FOR	-1683
▁Move	-1684
▁impress	-1685
▁seat	-1686
▁16	-1687
▁Atlantic	-1688
▁One	-1689
▁He	-1690
▁FLOOR	-1691
cre	-1692
athed	-1693
▁ceramic	-1694
▁Se	-1695
▁Fr	-1696
12	-1697
▁Heat	-1698
▁May	-1699
athedral	-1700
▁friend	-1701
ired	-1702
▁Fire	-1703
▁recreation	-1704
▁curr	-1705
uven	-1706
ens	-1707
▁Suite	-1708
ming	-1709
ATED	-1710
▁ge	-1711
▁078	-1712
▁Princeton	-1713
cell	-1714
▁Hop	-1715
AIN	-1716
lassic	-1717
▁Make	-1718
▁Perfect	-1719
man	-1720
OT	-1721
ennis	-1722
▁BED	-1723
▁Bank	-1724
▁Rout	-1725
▁Shore	-1726
ersat	-1727
▁shops	-1728
▁around	-1729
▁luxurious	-1730
16	-1731
struc	-1732
▁Del	-1733
▁list	-1734
oon	-1735
astic	-1736
▁55	-1737
eland	-1738
UST	-1739
▁dryer	-1740
▁staircase	-1741
▁Long	-1742
▁refrigerator	-1743
▁lifestyle	-1744
▁activities	-1745
ains	-1746
to	-1747
▁42	-1748
▁Justice	-1749
antastic	-1750
▁Juven	-1751
▁Juvenile	-1752
▁Oak	-1753
▁buyer	-1754
▁each	-1755
▁AS	-1756
utral	-1757
▁peaceful	-1758
▁Priv	-1759
▁decor	-1760
uck	-1761
▁fixt	-1762
▁walking	-1763
▁Area	-1764
▁Sc	-1765
▁curb	-1766
▁comfortable	-1767
▁awa	-1768
▁200	-1769
lex	-1770
▁sprink	-1771
▁Your	-1772
vert	-1773
row	-1774
▁Center	-1775
▁flows	-1776
▁gourmet	-1777
▁Outside	-1778
▁sm	-1779
▁truly	-1780
▁enclosed	-1781
▁delight	-1782
▁versat	-1783
▁upper	-1784
▁Green	-1785
▁Joint	-1786
▁person	-1787
awn	-1788
omes	-1789
OOD	-1790
▁FR	-1791
abulous	-1792
alley	-1793
▁meticulously	-1794
▁Features	-1795
app	-1796
cellent	-1797
▁partially	-1798
▁War	-1799
AND	-1800
▁Enter	-1801
▁gem	-1802
▁appr	-1803
PP	-1804
▁House	-1805
▁creating	-1806
ishw	-1807
▁Window	-1808
▁pack	-1809
▁Will	-1810
range	-1811
▁FULL	-1812
▁Schedule	-1813
▁Cl	-1814
▁Conveniently	-1815
▁above	-1816
▁here	-1817
▁coffee	-1818
60	-1819
▁furnace	-1820
▁showing	-1821
▁CO	-1822
like	-1823
▁option	-1824
AM	-1825
▁except	-1826
▁steps	-1827
ny	-1828
story	-1829
▁Achieve	-1830
▁Edison	-1831
vail	-1832
▁sinks	-1833
▁0808	-1834
▁Gas	-1835
▁wor	-1836
▁Prep	-1837
▁loft	-1838
ffici	-1839
▁Rm	-1840
oll	-1841
▁30	-1842
▁adds	-1843
▁everything	-1844
▁Second	-1845
▁imm	-1846
▁provide	-1847
▁fixtures	-1848
▁Jointure	-1849
burning	-1850
▁Qu	-1851
▁BEDROOM	-1852
▁spaces	-1853
olar	-1854
▁gym	-1855
▁pric	-1856
anchester	-1857
iscover	-1858
▁Manchester	-1859
ative	-1860
▁per	-1861
▁13	-1862
▁Sl	-1863
▁Water	-1864
▁functional	-1865
▁welcoming	-1866
▁tons	-1867
aven	-1868
oximity	-1869
▁Unit	-1870
ily	-1871
▁local	-1872
ID	-1873
▁Deck	-1874
▁true	-1875
ergy	-1876
▁carpeting	-1877
ured	-1878
▁Arts	-1879
▁Vill	-1880
▁next	-1881
19	-1882
▁ensuite	-1883
aic	-1884
▁come	-1885
ishwasher	-1886
▁Door	-1887
▁ens	-1888
▁Berk	-1889
▁equipped	-1890
▁SH	-1891
▁Three	-1892
▁Hu	-1893
▁Stor	-1894
ush	-1895
▁square	-1896
▁Island	-1897
▁x	-1898
▁greeted	-1899
▁Greater	-1900
auty	-1901
aminate	-1902
▁heating	-1903
level	-1904
▁lake	-1905
UN	-1906
ange	-1907
▁Cor	-1908
elv	-1909
▁want	-1910
▁enjoying	-1911
▁DR	-1912
▁Som	-1913
ineland	-1914
▁professional	-1915
▁Cherry	-1916
▁zone	-1917
▁unique	-1918
ATION	-1919
inds	-1920
▁Primary	-1921
OS	-1922
crete	-1923
01	-1924
▁take	-1925
▁build	-1926
▁Re	-1927
▁Barn	-1928
▁entire	-1929
AD	-1930
IR	-1931
ams	-1932
cc	-1933
▁expanded	-1934
edar	-1935
▁good	-1936
onth	-1937
▁comb	-1938
▁feet	-1939
▁neutral	-1940
▁How	-1941
▁Nestled	-1942
▁resp	-1943
**	-1944
▁road	-1945
asant	-1946
▁screen	-1947
▁proximity	-1948
▁few	-1949
▁finishes	-1950
▁Level	-1951
NT	-1952
▁oven	-1953
tic	-1954
▁chef	-1955
▁17	-1956
▁mat	-1957
▁Valley	-1958
▁wooded	-1959
eley	-1960
▁too	-1961
▁Granite	-1962
▁col	-1963
▁cre	-1964
Technical	-1965
▁Fireplace	-1966
▁seamlessly	-1967
▁+	-1968
▁Berkeley	-1969
▁Charm	-1970
▁Situated	-1971
▁fans	-1972
▁turn	-1973
▁cathedral	-1974
▁serv	-1975
lum	-1976
ranty	-1977
▁LR	-1978
▁Brand	-1979
▁Orange	-1980
▁classic	-1981
ards	-1982
▁YOU	-1983
27	-1984
vailable	-1985
▁Air	-1986
istor	-1987
▁Mont	-1988
AST	-1989
▁maintenance	-1990
elf	-1991
▁Ne	-1992
▁Pass	-1993
orning	-1994
▁use	-1995
▁Borough	-1996
fl	-1997
▁personal	-1998
▁overlooks	-1999
▁Lot	-2000
▁station	-2001
▁Lower	-2002
▁No	-2003
ors	-2004
28	-2005
▁wide	-2006
ross	-2007
reez	-2008
ium	-2009
▁hallway	-2010
▁single	-2011
▁Private	-2012
▁HW	-2013
▁Route	-2014
utt	-2015
▁ag	-2016
▁package	-2017
▁get	-2018
▁dual	-2019
▁beauty	-2020
▁Im	-2021
▁foot	-2022
▁generator	-2023
▁KIT	-2024
▁morning	-2025
stown	-2026
▁effici	-2027
▁respons	-2028
OV	-2029
▁marble	-2030
▁stairs	-2031
▁SP	-2032
▁24	-2033
▁units	-2034
▁go	-2035
▁gleaming	-2036
▁makes	-2037
▁chance	-2038
acu	-2039
stment	-2040
▁third	-2041
struction	-2042
▁adjacent	-2043
▁flex	-2044
ott	-2045
▁Ceil	-2046
ench	-2047
▁thought	-2048
▁OFF	-2049
5,	-2050
view	-2051
▁Old	-2052
roe	-2053
ally	-2054
▁Monroe	-2055
asy	-2056
▁Element	-2057
rm	-2058
▁look	-2059
olog	-2060
▁Own	-2061
▁cle	-2062
▁Stainless	-2063
▁trees	-2064
▁easily	-2065
▁Passaic	-2066
▁4-	-2067
ology	-2068
CHEN	-2069
▁Hunter	-2070
echnology	-2071
amp	-2072
BR	-2073
shop	-2074
▁tennis	-2075
▁Elementary	-2076
▁grand	-2077
▁walls	-2078
AGE	-2079
▁Fran	-2080
ute	-2081
elp	-2082
▁CL	-2083
▁074	-2084
redible	-2085
The	-2086
yers	-2087
egat	-2088
▁Rt	-2089
▁month	-2090
▁Phil	-2091
most	-2092
▁100	-2093
thern	-2094
▁Barnegat	-2095
▁Pool	-2096
▁Well	-2097
pr	-2098
▁tour	-2099
▁Lak	-2100
▁blocks	-2101
▁Howell	-2102
▁elegance	-2103
▁Buyer	-2104
▁extend	-2105
▁exceptional	-2106
▁moldings	-2107
18	-2108
▁combin	-2109
▁fan	-2110
▁Wash	-2111
por	-2112
▁Club	-2113
▁bal	-2114
▁char	-2115
▁conn	-2116
ITE	-2117
▁low	-2118
▁concrete	-2119
▁Plenty	-2120
▁spa	-2121
pos	-2122
▁From	-2123
letown	-2124
ccup	-2125
▁homes	-2126
▁Floors	-2127
▁convert	-2128
▁Appliances	-2129
co	-2130
family	-2131
▁seating	-2132
▁Beautifully	-2133
▁mud	-2134
▁create	-2135
▁Middletown	-2136
▁Frank	-2137
▁versatile	-2138
▁UP	-2139
▁Des	-2140
▁LOC	-2141
ewood	-2142
▁friends	-2143
▁KITCHEN	-2144
▁Village	-2145
▁their	-2146
▁Lov	-2147
▁Pleasant	-2148
▁Technology	-2149
▁available	-2150
▁tra	-2151
▁Ridge	-2152
▁Asbury	-2153
▁sprinkler	-2154
▁Washington	-2155
▁0800	-2156
▁079	-2157
after	-2158
ich	-2159
inn	-2160
▁clubhouse	-2161
▁Gorgeous	-2162
iking	-2163
▁drive	-2164
▁Easy	-2165
▁Call	-2166
water	-2167
▁airy	-2168
▁Hol	-2169
▁season	-2170
▁Light	-2171
▁dishwasher	-2172
▁Inc	-2173
ether	-2174
eless	-2175
▁Also	-2176
▁cars	-2177
ues	-2178
▁call	-2179
▁Backyard	-2180
▁utility	-2181
▁skylights	-2182
cas	-2183
17	-2184
▁086	-2185
▁if	-2186
▁stud	-2187
▁Charming	-2188
ALL	-2189
▁pres	-2190
▁Pat	-2191
▁spot	-2192
▁Front	-2193
▁split	-2194
▁Hunterdon	-2195
new	-2196
▁lights	-2197
▁rep	-2198
▁Down	-2199
▁currently	-2200
▁options	-2201
vd	-2202
ring	-2203
rs	-2204
▁Inter	-2205
▁Windows	-2206
erfront	-2207
▁Blvd	-2208
▁way	-2209
▁fantastic	-2210
▁surrounded	-2211
▁rare	-2212
ract	-2213
floor	-2214
pliance	-2215
town	-2216
away	-2217
ken	-2218
▁laminate	-2219
pit	-2220
▁accom	-2221
▁Patio	-2222
ted	-2223
sized	-2224
▁Huge	-2225
▁Merc	-2226
ng	-2227
▁29	-2228
utters	-2229
ESS	-2230
▁pictures	-2231
form	-2232
▁hard	-2233
▁tim	-2234
bu	-2235
--	-2236
ATE	-2237
work	-2238
▁Franklin	-2239
appoint	-2240
▁Somers	-2241
▁Heights	-2242
ACK	-2243
▁range	-2244
arket	-2245
SP	-2246
▁red	-2247
aintained	-2248
▁Est	-2249
ied	-2250
▁Tran	-2251
au	-2252
▁Shop	-2253
▁awaits	-2254
▁nearby	-2255
ectac	-2256
▁responsible	-2257
▁styl	-2258
zz	-2259
▁sim	-2260
▁investment	-2261
▁tax	-2262
ectacular	-2263
▁Complet	-2264
▁qual	-2265
▁Seller	-2266
▁won	-2267
▁Mercer	-2268
AB	-2269
empor	-2270
▁fabulous	-2271
astef	-2272
icely	-2273
▁0805	-2274
▁enh	-2275
emporary	-2276
▁28	-2277
▁Little	-2278
▁tranquil	-2279
▁Schools	-2280
▁lawn	-2281
▁stand	-2282
▁lush	-2283
▁LAR	-2284
▁Lakewood	-2285
▁man	-2286
In	-2287
15	-2288
▁screened	-2289
▁cra	-2290
▁sure	-2291
▁abundance	-2292
ees	-2293
▁22	-2294
▁details	-2295
▁Sum	-2296
▁Z	-2297
▁Marl	-2298
zzi	-2299
IF	-2300
▁farm	-2301
icrow	-2302
▁shelv	-2303
▁playroom	-2304
▁start	-2305
▁hosting	-2306
▁23	-2307
EAT	-2308
LY	-2309
▁El	-2310
mos	-2311
acuzzi	-2312
alt	-2313
ette	-2314
urity	-2315
▁big	-2316
icrowave	-2317
▁mem	-2318
▁wet	-2319
▁RE	-2320
▁connect	-2321
bridge	-2322
▁feature	-2323
▁about	-2324
▁/	-2325
▁Inside	-2326
▁Brook	-2327
▁whole	-2328
▁sale	-2329
▁excellent	-2330
▁tank	-2331
▁flood	-2332
acter	-2333
▁Wall	-2334
law	-2335
▁LARGE	-2336
fore	-2337
▁25	-2338
▁fac	-2339
▁breez	-2340
▁Exp	-2341
▁kn	-2342
aker	-2343
▁Newark	-2344
▁Ter	-2345
ACE	-2346
▁Maple	-2347
▁ple	-2348
▁pull	-2349
▁rail	-2350
▁Te	-2351
quis	-2352
▁Fresh	-2353
rap	-2354
▁ALL	-2355
ention	-2356
ised	-2357
▁Cabinet	-2358
▁prime	-2359
▁State	-2360
▁life	-2361
▁50	-2362
▁clean	-2363
TH	-2364
▁histor	-2365
▁special	-2366
▁workshop	-2367
▁bet	-2368
ouses	-2369
▁Garden	-2370
▁083	-2371
▁vis	-2372
▁converted	-2373
iles	-2374
CE	-2375
▁multiple	-2376
▁line	-2377
ru	-2378
▁incredible	-2379
▁Baths	-2380
▁tree	-2381
▁dis	-2382
board	-2383
▁exper	-2384
▁Len	-2385
▁courts	-2386
▁tot	-2387
▁insp	-2388
▁mind	-2389
ham	-2390
ord	-2391
▁PL	-2392
top	-2393
▁Pa	-2394
▁If	-2395
mod	-2396
....	-2397
RY	-2398
ply	-2399
ump	-2400
▁cons	-2401
ewer	-2402
ments	-2403
ball	-2404
▁stylish	-2405
RAN	-2406
acul	-2407
ency	-2408
▁boasting	-2409
ibr	-2410
ERT	-2411
ung	-2412
▁refinished	-2413
▁mom	-2414
▁live	-2415
▁trim	-2416
AK	-2417
▁war	-2418
▁Built	-2419
▁Vineland	-2420
▁appliance	-2421
mosph	-2422
▁round	-2423
▁Turn	-2424
▁Paterson	-2425
▁meal	-2426
inning	-2427
▁Renov	-2428
▁fence	-2429
mosphere	-2430
▁Entertain	-2431
▁quick	-2432
OOL	-2433
▁character	-2434
US	-2435
▁ing	-2436
▁Cod	-2437
11	-2438
▁Penn	-2439
▁mature	-2440
▁wine	-2441
fully	-2442
style	-2443
bing	-2444
nific	-2445
▁''	-2446
▁atmosphere	-2447
iate	-2448
▁occup	-2449
▁sunny	-2450
▁requ	-2451
enton	-2452
▁York	-2453
▁Wat	-2454
▁golf	-2455
ban	-2456
▁Hot	-2457
▁prem	-2458
▁comes	-2459
ibrary	-2460
▁Hall	-2461
▁onto	-2462
▁Trans	-2463
▁55+	-2464
ibility	-2465
ane	-2466
▁filled	-2467
▁picturesque	-2468
▁before	-2469
▁oak	-2470
▁free	-2471
▁accommod	-2472
▁inground	-2473
▁price	-2474
hia	-2475
cony	-2476
▁Storage	-2477
▁Lovely	-2478
▁COM	-2479
▁pur	-2480
▁experience	-2481
▁Stunning	-2482
elphia	-2483
aring	-2484
▁Trenton	-2485
▁sle	-2486
▁Lead	-2487
▁Fenced	-2488
▁Ab	-2489
▁La	-2490
ership	-2491
▁nook	-2492
IGHT	-2493
▁val	-2494
▁Convenient	-2495
ished	-2496
ivers	-2497
▁Featuring	-2498
▁fit	-2499
evelop	-2500
nificent	-2501
▁Both	-2502
cl	-2503
▁Yard	-2504
▁000	-2505
▁arch	-2506
adelphia	-2507
▁Tre	-2508
▁sell	-2509
▁indoor	-2510
une	-2511
quisite	-2512
▁enough	-2513
ness	-2514
iec	-2515
▁LOCATION	-2516
OL	-2517
wind	-2518
▁cool	-2519
▁Philadelphia	-2520
▁solar	-2521
▁LIV	-2522
▁08759	-2523
VER	-2524
fer	-2525
▁Cs	-2526
apan	-2527
een	-2528
▁vib	-2529
▁0809	-2530
▁buyers	-2531
ergen	-2532
king	-2533
35	-2534
▁CLOS	-2535
▁Lenape	-2536
▁deep	-2537
▁Bel	-2538
▁1-	-2539
▁across	-2540
itect	-2541
▁hand	-2542
▁Shopping	-2543
▁functionality	-2544
ingly	-2545
ercise	-2546
imming	-2547
line	-2548
▁discover	-2549
▁Bergen	-2550
▁nicely	-2551
ek	-2552
▁Bed	-2553
▁mag	-2554
▁tastef	-2555
Un	-2556
▁BACK	-2557
oliday	-2558
▁grill	-2559
rec	-2560
▁Le	-2561
▁construction	-2562
25	-2563
IK	-2564
▁warmth	-2565
▁Train	-2566
▁de	-2567
▁Model	-2568
▁small	-2569
aised	-2570
▁Fully	-2571
▁Upgrad	-2572
▁Somerset	-2573
▁rental	-2574
▁est	-2575
▁Whether	-2576
rect	-2577
▁08757	-2578
▁notice	-2579
▁Med	-2580
▁timeless	-2581
alapan	-2582
▁shore	-2583
▁left	-2584
▁rout	-2585
▁Gener	-2586
iece	-2587
▁Manalapan	-2588
▁40	-2589
▁HU	-2590
▁Heater	-2591
ved	-2592
REAT	-2593
ITY	-2594
▁Sw	-2595
▁woods	-2596
▁FIN	-2597
▁cap	-2598
▁decorative	-2599
▁touches	-2600
▁par	-2601
▁COU	-2602
▁unp	-2603
▁Upper	-2604
OP	-2605
▁found	-2606
burg	-2607
▁nature	-2608
▁welcomes	-2609
▁Land	-2610
lumbing	-2611
▁game	-2612
▁warranty	-2613
▁yourself	-2614
▁So	-2615
▁Correct	-2616
▁Flooring	-2617
▁Den	-2618
▁Corrections	-2619
▁Closet	-2620
▁pit	-2621
▁slider	-2622
▁microwave	-2623
▁perfectly	-2624
▁Spring	-2625
▁wrap	-2626
▁panels	-2627
▁contemporary	-2628
▁impressive	-2629
atic	-2630
▁Nice	-2631
bathroom	-2632
▁Minutes	-2633
▁Oversized	-2634
▁keep	-2635
ered	-2636
▁income	-2637
▁Not	-2638
▁Parkway	-2639
▁everyday	-2640
▁Rel	-2641
▁abundant	-2642
▁21	-2643
▁fin	-2644
▁mass	-2645
Union	-2646
aculate	-2647
▁Commisson	-2648
▁utilities	-2649
oh	-2650
gan	-2651
▁Street	-2652
▁tranquility	-2653
▁such	-2654
▁boat	-2655
icured	-2656
▁3.5	-2657
ready	-2658
▁Foyer	-2659
▁balcony	-2660
▁Steel	-2661
appointed	-2662
▁Renovated	-2663
▁Double	-2664
48	-2665
▁market	-2666
ALK	-2667
▁INC	-2668
▁Cont	-2669
inary	-2670
▁bring	-2671
▁now	-2672
▁System	-2673
▁EX	-2674
▁when	-2675
▁quality	-2676
▁accent	-2677
▁APP	-2678
▁Hope	-2679
▁08753	-2680
▁nights	-2681
stone	-2682
lights	-2683
▁Clif	-2684
46	-2685
▁simply	-2686
▁hook	-2687
▁1.	-2688
▁siz	-2689
▁commute	-2690
▁Winds	-2691
▁yet	-2692
▁Relax	-2693
▁energy	-2694
▁ensuring	-2695
▁Penns	-2696
▁Fair	-2697
▁schedule	-2698
34	-2699
head	-2700
▁houses	-2701
office	-2702
▁Ceiling	-2703
▁miles	-2704
reath	-2705
plex	-2706
▁vac	-2707
▁LIVING	-2708
▁Freshly	-2709
▁investor	-2710
▁Pride	-2711
▁outdoors	-2712
▁may	-2713
▁downstairs	-2714
maintained	-2715
▁str	-2716
▁Bright	-2717
▁what	-2718
walk	-2719
▁taxes	-2720
AUT	-2721
▁Att	-2722
▁cook	-2723
▁Delaw	-2724
36	-2725
▁Ext	-2726
istic	-2727
dining	-2728
▁Other	-2729
ertific	-2730
▁unwind	-2731
▁delightful	-2732
▁Windsor	-2733
atory	-2734
ided	-2735
the	-2736
▁waterfront	-2737
▁27	-2738
▁Show	-2739
▁Laure	-2740
ev	-2741
▁Cour	-2742
▁commuting	-2743
▁conditioning	-2744
▁Delaware	-2745
lue	-2746
▁don	-2747
evelopment	-2748
▁septic	-2749
cases	-2750
▁BAS	-2751
▁table	-2752
▁Plain	-2753
▁were	-2754
▁2,	-2755
EMENT	-2756
▁vibrant	-2757
ared	-2758
▁professionally	-2759
▁plank	-2760
mart	-2761
▁Laurel	-2762
▁GREAT	-2763
orable	-2764
outhern	-2765
HED	-2766
▁Very	-2767
▁pump	-2768
▁Plainfield	-2769
▁GSP	-2770
▁security	-2771
▁tray	-2772
▁base	-2773
▁architect	-2774
▁08527	-2775
▁SU	-2776
▁Four	-2777
▁Station	-2778
▁french	-2779
▁Ma	-2780
▁Rob	-2781
▁country	-2782
ranch	-2783
▁book	-2784
▁value	-2785
▁breeze	-2786
▁little	-2787
▁Over	-2788
ween	-2789
▁BB	-2790
▁BEAUT	-2791
▁26	-2792
▁electrical	-2793
▁spectacular	-2794
▁NOT	-2795
▁Upon	-2796
luded	-2797
bert	-2798
▁exquisite	-2799
▁Furn	-2800
▁WALK	-2801
▁check	-2802
▁CON	-2803
▁less	-2804
oph	-2805
▁picture	-2806
ucked	-2807
▁allows	-2808
▁Outdoor	-2809
▁sunlight	-2810
ites	-2811
▁prep	-2812
etc	-2813
ger	-2814
▁solid	-2815
ROU	-2816
▁jet	-2817
istine	-2818
▁walkout	-2819
▁soft	-2820
sp	-2821
aze	-2822
▁Warren	-2823
▁See	-2824
irc	-2825
▁plumbing	-2826
▁ir	-2827
▁walkway	-2828
▁rancher	-2829
▁enjoyment	-2830
▁OP	-2831
rawling	-2832
26	-2833
▁Anderson	-2834
▁Branch	-2835
▁seller	-2836
PL	-2837
imate	-2838
ections	-2839
▁Inst	-2840
▁chair	-2841
▁grounds	-2842
▁done	-2843
▁district	-2844
▁vanities	-2845
▁SEE	-2846
urther	-2847
▁playground	-2848
▁Farm	-2849
ILL	-2850
ewell	-2851
▁trail	-2852
▁1,	-2853
▁bas	-2854
▁Woodbridge	-2855
▁service	-2856
14	-2857
▁Lakes	-2858
ophistic	-2859
▁adorn	-2860
▁~	-2861
▁thoughtfully	-2862
ILY	-2863
ching	-2864
▁raised	-2865
▁designer	-2866
▁board	-2867
ix	-2868
▁between	-2869
▁Slid	-2870
ores	-2871
▁apprec	-2872
▁Marlboro	-2873
▁cherry	-2874
udson	-2875
built	-2876
▁sleek	-2877
IND	-2878
▁would	-2879
▁shelving	-2880
▁Driveway	-2881
▁Space	-2882
▁HAS	-2883
▁ev	-2884
▁0775	-2885
▁levels	-2886
▁evenings	-2887
▁Top	-2888
sol	-2889
13	-2890
▁BBQ	-2891
ences	-2892
inter	-2893
▁Clifton	-2894
▁!	-2895
wning	-2896
▁cared	-2897
▁bill	-2898
90	-2899
▁Nat	-2900
▁med	-2901
▁immed	-2902
▁closing	-2903
▁course	-2904
ives	-2905
IRE	-2906
▁AT	-2907
▁GAR	-2908
▁Doors	-2909
▁Cedar	-2910
▁Black	-2911
▁extended	-2912
▁Each	-2913
▁BEAUTIF	-2914
ang	-2915
ney	-2916
▁OPEN	-2917
▁Opportunity	-2918
essed	-2919
33	-2920
▁exercise	-2921
▁Hudson	-2922
▁manicured	-2923
WOOD	-2924
▁days	-2925
erm	-2926
This	-2927
▁HUGE	-2928
▁BASEMENT	-2929
42	-2930
▁we	-2931
erfor	-2932
▁entering	-2933
▁ownership	-2934
AMILY	-2935
▁Rock	-2936
LC	-2937
▁Haven	-2938
▁swimming	-2939
pike	-2940
▁YOUR	-2941
ICE	-2942
▁approxim	-2943
ense	-2944
fts	-2945
▁etc	-2946
▁contin	-2947
▁Dept	-2948
▁insul	-2949
▁Estates	-2950
32	-2951
▁Through	-2952
omas	-2953
▁efficiency	-2954
▁Highland	-2955
▁breath	-2956
▁Deptford	-2957
▁who	-2958
▁Trex	-2959
filled	-2960
▁Every	-2961
▁massive	-2962
ANT	-2963
▁View	-2964
▁LE	-2965
▁Southern	-2966
▁Had	-2967
▁skylight	-2968
Ocean	-2969
ones	-2970
▁due	-2971
eptune	-2972
▁Neptune	-2973
▁fish	-2974
▁2019	-2975
▁active	-2976
▁magnificent	-2977
▁ARE	-2978
▁Bathrooms	-2979
▁Plus	-2980
▁green	-2981
▁cooking	-2982
▁Porch	-2983
drm	-2984
▁Ready	-2985
aving	-2986
▁MUST	-2987
▁Bonus	-2988
ORE	-2989
▁sophistic	-2990
▁Boro	-2991
▁Glen	-2992
▁library	-2993
▁mudroom	-2994
asons	-2995
▁still	-2996
ASTER	-2997
▁GARAGE	-2998
iam	-2999
▁commuter	-3000
▁Country	-3001
▁thru	-3002
▁appointed	-3003
▁share	-3004
fford	-3005
▁kept	-3006
▁Res	-3007
azebo	-3008
itan	-3009
▁systems	-3010
ker	-3011
▁cape	-3012
▁let	-3013
▁almost	-3014
▁35	-3015
▁completes	-3016
▁Set	-3017
ern	-3018
eparate	-3019
▁FAMILY	-3020
▁Vinyl	-3021
taking	-3022
▁NEWER	-3023
▁Head	-3024
mit	-3025
▁Par	-3026
▁cedar	-3027
uture	-3028
▁2018	-3029
▁2020	-3030
▁BU	-3031
▁2021	-3032
▁fall	-3033
▁meals	-3034
▁Mat	-3035
▁apartment	-3036
▁TLC	-3037
▁Millville	-3038
hees	-3039
▁premium	-3040
▁further	-3041
OVE	-3042
▁Best	-3043
OUSE	-3044
▁pond	-3045
▁Haddon	-3046
ORT	-3047
▁AN	-3048
ecc	-3049
oorhees	-3050
▁MASTER	-3051
iance	-3052
▁amb	-3053
▁Glass	-3054
well	-3055
▁EIK	-3056
unities	-3057
ably	-3058
ories	-3059
▁then	-3060
▁ten	-3061
▁OFFERS	-3062
▁bel	-3063
▁awning	-3064
UB	-3065
▁CAR	-3066
aritan	-3067
▁highlight	-3068
▁sac	-3069
concept	-3070
▁comp	-3071
▁adding	-3072
▁cas	-3073
▁imag	-3074
ARK	-3075
▁Furnace	-3076
▁Medford	-3077
▁0885	-3078
orse	-3079
▁draw	-3080
▁future	-3081
▁HARD	-3082
iant	-3083
▁0700	-3084
▁Flor	-3085
▁Plains	-3086
▁Cabinets	-3087
▁ocean	-3088
WN	-3089
oved	-3090
▁2022	-3091
IAN	-3092
▁dry	-3093
▁dead	-3094
▁36	-3095
▁made	-3096
▁Lots	-3097
000	-3098
rest	-3099
▁combo	-3100
▁appreciate	-3101
alls	-3102
▁De	-3103
▁suns	-3104
national	-3105
▁centers	-3106
ATER	-3107
▁load	-3108
▁COUNT	-3109
▁Or	-3110
▁Det	-3111
▁wait	-3112
▁redone	-3113
▁study	-3114
▁tastefully	-3115
▁Tile	-3116
▁salt	-3117
▁Owner	-3118
▁pro	-3119
▁Newly	-3120
▁moment	-3121
▁accommodate	-3122
lers	-3123
▁Pric	-3124
▁everyone	-3125
tiv	-3126
▁Fre	-3127
▁historic	-3128
▁repairs	-3129
owing	-3130
▁adorned	-3131
▁ass	-3132
/20	-3133
▁Energy	-3134
UE	-3135
▁UPD	-3136
▁sewer	-3137
▁sprawling	-3138
▁80	-3139
.,	-3140
▁min	-3141
▁International	-3142
▁unpack	-3143
▁adult	-3144
▁paved	-3145
▁Cran	-3146
▁var	-3147
uplex	-3148
posite	-3149
▁Desirable	-3150
itute	-3151
▁Breakfast	-3152
▁soaring	-3153
▁Id	-3154
ECT	-3155
adise	-3156
▁Boast	-3157
▁FLOORS	-3158
▁Institute	-3159
▁meet	-3160
▁HIGH	-3161
▁POOL	-3162
▁highlights	-3163
▁Montcl	-3164
▁soon	-3165
▁Stone	-3166
▁beg	-3167
▁Ben	-3168
afford	-3169
▁Science	-3170
▁Montclair	-3171
▁CH	-3172
▁jetted	-3173
▁BEST	-3174
▁gutters	-3175
▁transit	-3176
▁Rest	-3177
▁Cle	-3178
ftsman	-3179
▁Westfield	-3180
CT	-3181
▁Stafford	-3182
▁Please	-3183
▁ENT	-3184
▁White	-3185
▁Mountain	-3186
▁DEC	-3187
▁path	-3188
▁plant	-3189
▁BEAUTIFUL	-3190
ONT	-3191
▁routes	-3192
▁mile	-3193
uary	-3194
▁Cur	-3195
▁AD	-3196
ements	-3197
ampton	-3198
▁memories	-3199
▁splash	-3200
▁lovingly	-3201
front	-3202
aining	-3203
▁Sliding	-3204
▁barb	-3205
▁dock	-3206
▁ambiance	-3207
▁Near	-3208
▁elev	-3209
▁Shower	-3210
IAL	-3211
▁Part	-3212
UD	-3213
▁barn	-3214
▁Separate	-3215
▁Turnpike	-3216
IOUS	-3217
▁Recessed	-3218
▁60	-3219
▁WH	-3220
urner	-3221
▁put	-3222
▁Aven	-3223
▁Gourmet	-3224
idg	-3225
▁pristine	-3226
▁BEDROOMS	-3227
▁does	-3228
▁seeking	-3229
▁HARDWOOD	-3230
▁cov	-3231
places	-3232
nut	-3233
rated	-3234
ston	-3235
▁0807	-3236
▁efficient	-3237
erforming	-3238
quan	-3239
▁point	-3240
URES	-3241
▁ago	-3242
▁enhanc	-3243
▁gardening	-3244
▁EN	-3245
ONE	-3246
▁arr	-3247
VEL	-3248
key	-3249
stig	-3250
▁OUT	-3251
▁More	-3252
▁adjo	-3253
▁development	-3254
▁0820	-3255
▁fridge	-3256
▁comple	-3257
▁WIND	-3258
shore	-3259
▁completed	-3260
dryer	-3261
▁Upgraded	-3262
▁scen	-3263
▁trails	-3264
reek	-3265
dale	-3266
▁bec	-3267
cel	-3268
▁Offer	-3269
ISHED	-3270
OOF	-3271
eff	-3272
▁BRAND	-3273
▁rated	-3274
▁sound	-3275
▁Hard	-3276
▁beds	-3277
▁winter	-3278
St	-3279
▁Must	-3280
▁Offers	-3281
▁Natural	-3282
eh	-3283
▁TW	-3284
▁Adj	-3285
▁Law	-3286
▁2017	-3287
▁Wonderful	-3288
▁Performing	-3289
ory	-3290
awk	-3291
▁Grove	-3292
ILING	-3293
encing	-3294
▁Bayshore	-3295
ored	-3296
edom	-3297
▁afford	-3298
▁inspections	-3299
▁neighborhoods	-3300
▁ph	-3301
▁Take	-3302
▁city	-3303
orm	-3304
▁Elect	-3305
▁desired	-3306
ffort	-3307
▁Grand	-3308
▁SHOW	-3309
▁WATER	-3310
stigious	-3311
▁Here	-3312
▁lined	-3313
▁Access	-3314
OUT	-3315
PLE	-3316
▁Amazing	-3317
plan	-3318
▁box	-3319
▁head	-3320
IM	-3321
▁possible	-3322
▁Sil	-3323
get	-3324
▁Additionally	-3325
DAY	-3326
▁WINDOW	-3327
wing	-3328
▁Lind	-3329
anding	-3330
▁Bring	-3331
▁Sliders	-3332
amed	-3333
▁Bridgewater	-3334
▁Sk	-3335
oned	-3336
▁care	-3337
▁Ideal	-3338
▁Discover	-3339
isure	-3340
RANITE	-3341
iately	-3342
▁super	-3343
▁estate	-3344
igned	-3345
▁Wayne	-3346
▁Leadership	-3347
▁Run	-3348
▁Transit	-3349
▁Wild	-3350
▁architectural	-3351
amatic	-3352
USTOM	-3353
▁effort	-3354
▁certific	-3355
▁breathtaking	-3356
zone	-3357
▁ROOF	-3358
▁Cal	-3359
▁consist	-3360
▁adv	-3361
INING	-3362
▁Many	-3363
▁Ref	-3364
usi	-3365
eted	-3366
▁suit	-3367
▁34	-3368
▁Multi	-3369
com	-3370
High	-3371
▁Attached	-3372
▁shaker	-3373
▁BA	-3374
IVATE	-3375
▁Freedom	-3376
thusi	-3377
▁Prepar	-3378
err	-3379
▁dinn	-3380
▁Preparatory	-3381
ehic	-3382
▁rad	-3383
solut	-3384
▁08701	-3385
▁APPL	-3386
▁Bloom	-3387
▁env	-3388
▁Some	-3389
▁culinary	-3390
▁Tub	-3391
▁purch	-3392
OD	-3393
▁Ewing	-3394
solutely	-3395
▁Has	-3396
▁immaculate	-3397
thusiast	-3398
▁"	-3399
ject	-3400
▁decks	-3401
▁combines	-3402
▁Say	-3403
▁Shed	-3404
▁sheds	-3405
▁UPDATED	-3406
ressing	-3407
formation	-3408
▁CE	-3409
▁08724	-3410
▁Lace	-3411
▁pick	-3412
▁pay	-3413
▁Electric	-3414
▁Haz	-3415
▁Sub	-3416
▁Attic	-3417
▁Paver	-3418
pm	-3419
pool	-3420
▁2023	-3421
▁combination	-3422
VE	-3423
▁0887	-3424
▁approx	-3425
▁Quartz	-3426
▁circ	-3427
▁gazebo	-3428
▁PRIVATE	-3429
▁renovation	-3430
ids	-3431
▁Completely	-3432
ainsc	-3433
▁FEAT	-3434
irl	-3435
▁vehic	-3436
iversity	-3437
rence	-3438
▁flexible	-3439
▁Acres	-3440
▁Lacey	-3441
▁Golf	-3442
65	-3443
▁mov	-3444
ination	-3445
▁Thomas	-3446
▁Pine	-3447
▁ONE	-3448
▁Tim	-3449
rol	-3450
plit	-3451
▁Bus	-3452
▁Rem	-3453
▁Walking	-3454
▁Whiting	-3455
▁complement	-3456
29	-3457
lish	-3458
▁Lawrence	-3459
ancy	-3460
▁jacuzzi	-3461
astal	-3462
▁haven	-3463
eek	-3464
ETS	-3465
▁PAT	-3466
▁stop	-3467
hind	-3468
▁CUSTOM	-3469
▁CEILING	-3470
▁Amb	-3471
▁immediately	-3472
▁Sold	-3473
▁APPLIAN	-3474
▁allowing	-3475
▁total	-3476
kitchen	-3477
▁five	-3478
▁accessible	-3479
▁CENT	-3480
▁fireplaces	-3481
TED	-3482
▁Linden	-3483
BLE	-3484
ines	-3485
▁Hat	-3486
▁paradise	-3487
▁organ	-3488
renched	-3489
▁tankless	-3490
▁enthusiast	-3491
▁Cozy	-3492
ottage	-3493
▁Willing	-3494
IZ	-3495
AKE	-3496
▁FIRE	-3497
▁approximately	-3498
▁Gall	-3499
▁effortless	-3500
▁DOOR	-3501
▁state	-3502
▁3,	-3503
orian	-3504
▁court	-3505
▁ult	-3506
▁HOUSE	-3507
▁key	-3508
▁real	-3509
▁Drive	-3510
oway	-3511
▁Willingboro	-3512
▁em	-3513
CES	-3514
ainscot	-3515
▁subway	-3516
ys	-3517
ormous	-3518
▁Washer	-3519
otos	-3520
erground	-3521
▁fishing	-3522
▁blends	-3523
▁07728	-3524
▁stay	-3525
▁recreational	-3526
▁attention	-3527
TER	-3528
opular	-3529
▁University	-3530
▁TWO	-3531
UNITY	-3532
▁current	-3533
▁Downstairs	-3534
▁70	-3535
▁gives	-3536
▁Crest	-3537
▁GRANITE	-3538
ision	-3539
▁Road	-3540
▁#	-3541
▁quaint	-3542
80	-3543
/4	-3544
▁his	-3545
▁Ban	-3546
▁LOT	-3547
ABLE	-3548
avor	-3549
▁fencing	-3550
▁finishing	-3551
ida	-3552
lined	-3553
▁Que	-3554
▁please	-3555
rigation	-3556
▁Mo	-3557
brook	-3558
▁linen	-3559
▁world	-3560
▁33	-3561
occe	-3562
▁Gleaming	-3563
▁recent	-3564
▁Ind	-3565
▁Lighting	-3566
▁Solar	-3567
▁Year	-3568
▁Luxur	-3569
▁backing	-3570
▁pass	-3571
▁Avenue	-3572
▁casual	-3573
▁Sunroom	-3574
▁gardens	-3575
rictly	-3576
▁extens	-3577
▁Adjacent	-3578
ips	-3579
ket	-3580
adit	-3581
▁Amboy	-3582
▁'	-3583
ACIOUS	-3584
▁scenic	-3585
▁Need	-3586
▁Looking	-3587
ok	-3588
shower	-3589
▁commuters	-3590
▁HEAT	-3591
▁2.	-3592
▁WOOD	-3593
jamin	-3594
▁DECK	-3595
▁media	-3596
▁directly	-3597
ibb	-3598
▁Cul	-3599
▁But	-3600
▁exc	-3601
▁Summit	-3602
acre	-3603
▁Add	-3604
▁Benjamin	-3605
anct	-3606
▁carpets	-3607
arger	-3608
61	-3609
ikv	-3610
▁Includ	-3611
▁End	-3612
ikvah	-3613
▁Hatikvah	-3614
▁Sur	-3615
▁Detached	-3616
▁Queen	-3617
▁5-	-3618
▁treat	-3619
▁Do	-3620
▁num	-3621
oval	-3622
▁DINING	-3623
urry	-3624
▁tucked	-3625
placement	-3626
▁Excellent	-3627
IDE	-3628
▁art	-3629
anctuary	-3630
▁fitness	-3631
▁young	-3632
DR	-3633
▁welcome	-3634
▁gathering	-3635
eth	-3636
▁run	-3637
mont	-3638
perfect	-3639
▁craft	-3640
▁barbec	-3641
▁Jacuzzi	-3642
icated	-3643
44	-3644
andel	-3645
▁WIC	-3646
▁Inve	-3647
▁baseboard	-3648
▁Pit	-3649
▁me	-3650
awan	-3651
▁Mead	-3652
▁listing	-3653
▁Professional	-3654
cong	-3655
▁hob	-3656
▁STOR	-3657
IG	-3658
▁Imm	-3659
▁impecc	-3660
▁worship	-3661
▁78	-3662
ospit	-3663
antage	-3664
▁31	-3665
▁NO	-3666
ospital	-3667
▁38	-3668
▁unt	-3669
iture	-3670
▁mant	-3671
▁colors	-3672
▁homeown	-3673
ty	-3674
▁investors	-3675
▁Creek	-3676
▁Teams	-3677
▁Warranty	-3678
▁prop	-3679
▁roadways	-3680
47	-3681
▁flat	-3682
atcong	-3683
▁Sayre	-3684
yond	-3685
▁past	-3686
▁SPACIOUS	-3687
▁37	-3688
▁Can	-3689
▁08723	-3690
▁already	-3691
ohn	-3692
▁Woods	-3693
▁finest	-3694
▁sizable	-3695
▁Holiday	-3696
▁AM	-3697
▁Ros	-3698
erville	-3699
▁needed	-3700
asquan	-3701
▁field	-3702
38	-3703
ics	-3704
erous	-3705
▁2016	-3706
URN	-3707
▁John	-3708
▁07731	-3709
▁expansion	-3710
edicated	-3711
▁Manasquan	-3712
LESS	-3713
▁FINISHED	-3714
steel	-3715
▁maple	-3716
EAR	-3717
▁gl	-3718
augh	-3719
▁RM	-3720
▁impr	-3721
▁never	-3722
▁trains	-3723
▁craftsman	-3724
agoon	-3725
▁ease	-3726
▁black	-3727
▁presents	-3728
iple	-3729
inute	-3730
▁exud	-3731
▁es	-3732
▁behind	-3733
▁*	-3734
ero	-3735
▁MORE	-3736
▁kind	-3737
▁Ceilings	-3738
▁Fan	-3739
▁piece	-3740
▁FIREPL	-3741
▁APPLIANCES	-3742
ketball	-3743
▁Matawan	-3744
▁Cir	-3745
▁Banne	-3746
▁expos	-3747
▁FP	-3748
▁Banneker	-3749
actical	-3750
▁prestigious	-3751
▁Mag	-3752
▁Blue	-3753
iler	-3754
ITION	-3755
▁parties	-3756
▁HO	-3757
ined	-3758
▁Split	-3759
urst	-3760
▁captiv	-3761
▁building	-3762
aily	-3763
▁Met	-3764
▁coat	-3765
▁45	-3766
▁46	-3767
▁stores	-3768
▁landscape	-3769
lit	-3770
43	-3771
▁Mil	-3772
▁OR	-3773
▁TV	-3774
ottom	-3775
veral	-3776
▁MOVE	-3777
▁YARD	-3778
▁flexibility	-3779
▁(2	-3780
urban	-3781
oduc	-3782
▁Hopewell	-3783
▁Entertaining	-3784
▁totally	-3785
▁Fabulous	-3786
ulk	-3787
▁IT	-3788
▁What	-3789
▁Major	-3790
▁connects	-3791
▁sanctuary	-3792
aditional	-3793
▁sets	-3794
▁night	-3795
▁resort	-3796
▁Horse	-3797
▁William	-3798
▁coveted	-3799
▁bdrm	-3800
iscat	-3801
▁ball	-3802
iscataway	-3803
▁Pike	-3804
bed	-3805
▁Piscataway	-3806
OY	-3807
▁Gu	-3808
▁Galloway	-3809
OLD	-3810
▁Vent	-3811
▁wainscot	-3812
▁adjoining	-3813
▁yrs	-3814
▁Ir	-3815
▁Van	-3816
▁duplex	-3817
iness	-3818
▁smart	-3819
▁Hazlet	-3820
IO	-3821
otch	-3822
▁Sal	-3823
▁dedicated	-3824
▁Countertop	-3825
▁Eliz	-3826
▁cost	-3827
▁cho	-3828
abeth	-3829
▁Throughout	-3830
wich	-3831
▁Powder	-3832
▁Elizabeth	-3833
ola	-3834
▁daily	-3835
▁coming	-3836
▁spe	-3837
▁Watch	-3838
▁0823	-3839
OC	-3840
IVE	-3841
▁flowing	-3842
▁FIREPLACE	-3843
▁Low	-3844
▁Extra	-3845
▁Sayreville	-3846
▁Lane	-3847
▁priced	-3848
▁Moo	-3849
▁showcases	-3850
iar	-3851
▁Modern	-3852
▁adorable	-3853
100	-3854
▁Closets	-3855
▁ultimate	-3856
▁08087	-3857
HA	-3858
▁pools	-3859
ERF	-3860
year	-3861
▁Per	-3862
▁Holm	-3863
▁coastal	-3864
▁Fantastic	-3865
portunities	-3866
ROUND	-3867
▁opening	-3868
▁TR	-3869
▁Wildwood	-3870
ife	-3871
▁Sus	-3872
▁Exterior	-3873
▁WOW	-3874
orcel	-3875
▁ther	-3876
▁liner	-3877
ems	-3878
▁Look	-3879
CED	-3880
OOK	-3881
▁Moore	-3882
▁Vict	-3883
▁Showings	-3884
smart	-3885
now	-3886
▁Sell	-3887
▁evening	-3888
borough	-3889
▁GAS	-3890
▁months	-3891
▁pride	-3892
▁information	-3893
ACH	-3894
ipp	-3895
▁strictly	-3896
▁gar	-3897
▁Fork	-3898
▁friendly	-3899
▁thoughtful	-3900
gate	-3901
▁visit	-3902
▁Summer	-3903
▁ride	-3904
▁irrigation	-3905
ward	-3906
aughter	-3907
▁having	-3908
!!!!	-3909
▁Holmdel	-3910
IST	-3911
▁BY	-3912
AP	-3913
▁Linc	-3914
▁Recent	-3915
▁Su	-3916
▁holiday	-3917
LUD	-3918
▁Plan	-3919
▁starter	-3920
▁Vaulted	-3921
▁75	-3922
▁Expanded	-3923
▁We	-3924
▁Meadow	-3925
▁Nothing	-3926
▁during	-3927
▁enormous	-3928
▁transform	-3929
ollow	-3930
▁Restaurants	-3931
▁dramatic	-3932
ced	-3933
▁shows	-3934
▁dressing	-3935
▁Tot	-3936
▁Entry	-3937
▁floorplan	-3938
▁X	-3939
▁known	-3940
inelands	-3941
▁Interior	-3942
▁0705	-3943
▁Sept	-3944
▁PATIO	-3945
andelier	-3946
▁Energysmart	-3947
▁Forked	-3948
▁LA	-3949
▁fill	-3950
▁Maplewood	-3951
▁08755	-3952
▁toil	-3953
riginal	-3954
▁Clubhouse	-3955
▁Bloomfield	-3956
ased	-3957
▁popular	-3958
dr	-3959
▁08050	-3960
orcelain	-3961
wy	-3962
▁Condition	-3963
▁Pinelands	-3964
▁Story	-3965
▁boardwalk	-3966
ected	-3967
▁Short	-3968
70	-3969
▁REN	-3970
ulkhead	-3971
▁vehicles	-3972
▁week	-3973
tle	-3974
▁08005	-3975
▁roads	-3976
▁hold	-3977
▁PLUS	-3978
▁Counters	-3979
OND	-3980
▁OWN	-3981
▁ind	-3982
lect	-3983
▁08831	-3984
▁Sitting	-3985
▁Crown	-3986
▁practical	-3987
▁130	-3988
▁Only	-3989
▁Paint	-3990
▁imagination	-3991
ilco	-3992
▁met	-3993
berton	-3994
▁composite	-3995
add	-3996
irt	-3997
orth	-3998
RAL	-3999
▁color	-4000
▁Mold	-4001
irlpool	-4002
▁Meticulously	-4003
splash	-4004
▁32	-4005
oe	-4006
▁HWH	-4007
▁ben	-4008
isting	-4009
▁Boasting	-4010
▁Original	-4011
▁rock	-4012
▁gracious	-4013
▁REC	-4014
▁Rear	-4015
itted	-4016
▁Holly	-4017
▁BATHROOM	-4018
▁FEATURES	-4019
▁sophistication	-4020
▁larger	-4021
▁decking	-4022
37	-4023
▁until	-4024
▁Timber	-4025
▁opportunities	-4026
▁Pe	-4027
▁INCLUD	-4028
▁surrounding	-4029
▁Moorestown	-4030
▁replacement	-4031
auc	-4032
▁BRs	-4033
▁COL	-4034
▁Ground	-4035
andy	-4036
▁furniture	-4037
▁cl	-4038
ames	-4039
▁via	-4040
▁Northern	-4041
▁required	-4042
▁blinds	-4043
62	-4044
▁Being	-4045
▁UN	-4046
▁lou	-4047
▁King	-4048
▁several	-4049
ina	-4050
deen	-4051
urance	-4052
berdeen	-4053
▁bi	-4054
▁WINDOWS	-4055
mar	-4056
▁**	-4057
alore	-4058
▁sunken	-4059
piece	-4060
▁2.5-	-4061
▁lend	-4062
▁Commut	-4063
▁vision	-4064
home	-4065
▁SELL	-4066
▁enhanced	-4067
aintenance	-4068
▁facing	-4069
▁sunsets	-4070
ODEL	-4071
▁Landscap	-4072
▁HOA	-4073
▁AREA	-4074
▁circular	-4075
▁STE	-4076
▁Ret	-4077
▁Eleg	-4078
▁numerous	-4079
▁Countertops	-4080
/3	-4081
ICK	-4082
burn	-4083
▁tiles	-4084
anked	-4085
▁loved	-4086
▁secluded	-4087
▁Team	-4088
▁Mad	-4089
▁township	-4090
▁hour	-4091
▁Corner	-4092
estone	-4093
ages	-4094
ERE	-4095
▁Carpet	-4096
▁favor	-4097
▁complemented	-4098
▁basketball	-4099
umb	-4100
▁Sussex	-4101
▁serenity	-4102
ractive	-4103
▁nothing	-4104
▁read	-4105
ovements	-4106
▁Recently	-4107
▁Livingston	-4108
yr	-4109
▁QU	-4110
▁Bern	-4111
hurst	-4112
▁bocce	-4113
awkin	-4114
▁Downtown	-4115
vas	-4116
▁Kn	-4117
ited	-4118
▁fee	-4119
▁flr	-4120
▁Rum	-4121
▁Silver	-4122
▁LIGHT	-4123
▁nearly	-4124
▁FHA	-4125
▁how	-4126
▁Rooms	-4127
▁theater	-4128
▁kids	-4129
▁Bridg	-4130
▁affordable	-4131
▁PROP	-4132
ASH	-4133
▁gated	-4134
▁working	-4135
▁Offering	-4136
ADY	-4137
▁LED	-4138
▁RENOV	-4139
wh	-4140
▁CAB	-4141
ization	-4142
▁eating	-4143
▁boating	-4144
street	-4145
▁App	-4146
▁Kings	-4147
▁roomy	-4148
▁Imp	-4149
ither	-4150
▁bike	-4151
▁port	-4152
▁Scotch	-4153
▁choice	-4154
5.	-4155
▁Found	-4156
▁streets	-4157
▁underground	-4158
▁Hillsborough	-4159
▁Check	-4160
▁Pantry	-4161
39	-4162
oci	-4163
oose	-4164
esome	-4165
▁traditional	-4166
▁aut	-4167
OWN	-4168
▁Ur	-4169
ERTY	-4170
▁sump	-4171
1,	-4172
rem	-4173
ergola	-4174
▁48	-4175
▁COMM	-4176
▁Dream	-4177
▁Manah	-4178
▁Rumson	-4179
▁cottage	-4180
▁fourth	-4181
▁creates	-4182
▁radiant	-4183
IEW	-4184
mostat	-4185
▁07726	-4186
▁Urban	-4187
▁consists	-4188
ibbon	-4189
▁Sink	-4190
use	-4191
Kitchen	-4192
▁Madison	-4193
foot	-4194
standing	-4195
▁craftsmanship	-4196
▁Manahawkin	-4197
▁sprinklers	-4198
▁items	-4199
▁Paul	-4200
▁Hurry	-4201
▁hookup	-4202
▁NE	-4203
▁canvas	-4204
▁her	-4205
▁Falls	-4206
▁Her	-4207
▁our	-4208
▁Views	-4209
▁opener	-4210
▁Watchung	-4211
lishtown	-4212
unct	-4213
▁events	-4214
▁Pace	-4215
erfall	-4216
▁farmhouse	-4217
▁Sq	-4218
rawl	-4219
▁MAIN	-4220
▁amount	-4221
▁Half	-4222
ana	-4223
▁PROPERTY	-4224
▁occupied	-4225
▁give	-4226
cent	-4227
▁Pict	-4228
▁Florida	-4229
PM	-4230
▁Em	-4231
▁LB	-4232
▁invites	-4233
uff	-4234
▁control	-4235
▁without	-4236
with	-4237
AIR	-4238
▁Generous	-4239
▁08731	-4240
▁Square	-4241
ORGE	-4242
▁Sea	-4243
▁Side	-4244
urs	-4245
inton	-4246
▁BEACH	-4247
▁Woodbury	-4248
▁favorite	-4249
▁wainscoting	-4250
▁drawers	-4251
arly	-4252
▁versatility	-4253
▁Dec	-4254
▁terr	-4255
around	-4256
▁CABIN	-4257
▁Court	-4258
▁burner	-4259
▁Milford	-4260
▁Highlands	-4261
▁SUN	-4262
linton	-4263
▁STAIN	-4264
▁pavers	-4265
▁Cranford	-4266
▁updating	-4267
▁cond	-4268
▁slate	-4269
perience	-4270
▁Beaches	-4271
▁soc	-4272
▁gone	-4273
▁exudes	-4274
oney	-4275
▁ensures	-4276
▁loads	-4277
▁Clinton	-4278
▁Williamstown	-4279
ELL	-4280
▁lagoon	-4281
▁meets	-4282
▁MBR	-4283
▁Chest	-4284
▁Voorhees	-4285
ioned	-4286
▁grass	-4287
ractable	-4288
66	-4289
▁goes	-4290
▁shutters	-4291
▁disc	-4292
▁upon	-4293
▁07748	-4294
▁0707	-4295
▁When	-4296
▁Covered	-4297
▁Prov	-4298
▁expand	-4299
ica	-4300
▁bottom	-4301
▁Bayville	-4302
▁residential	-4303
PT	-4304
ORGEOUS	-4305
▁moments	-4306
▁insulated	-4307
▁PARK	-4308
▁Key	-4309
▁same	-4310
GR	-4311
▁SUITE	-4312
▁Whole	-4313
▁facilities	-4314
ercial	-4315
verage	-4316
play	-4317
season	-4318
▁Int	-4319
▁0708	-4320
▁equipment	-4321
MENT	-4322
ancing	-4323
▁Bernards	-4324
▁transfer	-4325
▁Experience	-4326
▁chandelier	-4327
ote	-4328
ability	-4329
▁Construction	-4330
▁Quiet	-4331
▁offered	-4332
see	-4333
▁Salem	-4334
Pl	-4335
▁Ev	-4336
ella	-4337
▁Direct	-4338
▁Siding	-4339
▁downs	-4340
▁Section	-4341
gom	-4342
gomery	-4343
▁STAINLESS	-4344
▁reg	-4345
▁Chath	-4346
att	-4347
ONIAL	-4348
▁READY	-4349
▁fine	-4350
▁Montgomery	-4351
▁2024	-4352
▁fore	-4353
rew	-4354
free	-4355
▁Pars	-4356
To	-4357
▁0720	-4358
ags	-4359
▁looks	-4360
▁Victorian	-4361
▁Neck	-4362
▁COLONIAL	-4363
▁Panel	-4364
▁Style	-4365
yp	-4366
▁Guest	-4367
▁Corian	-4368
▁39	-4369
▁LOW	-4370
▁FROM	-4371
▁rich	-4372
ippany	-4373
▁toilet	-4374
▁carpeted	-4375
▁Gar	-4376
Raritan	-4377
▁studio	-4378
▁stained	-4379
▁Parsippany	-4380
▁bor	-4381
▁inch	-4382
▁sqft	-4383
▁Truly	-4384
idden	-4385
elle	-4386
▁power	-4387
▁Str	-4388
▁Bayon	-4389
▁Expans	-4390
▁mill	-4391
▁shad	-4392
▁Adult	-4393
▁GORGEOUS	-4394
tty	-4395
69	-4396
▁LEVEL	-4397
▁either	-4398
mud	-4399
▁SCH	-4400
▁bench	-4401
▁RENOVATED	-4402
olph	-4403
insul	-4404
▁Priced	-4405
▁Sprink	-4406
▁extensive	-4407
▁award	-4408
▁forget	-4409
▁remark	-4410
▁porcelain	-4411
▁bulkhead	-4412
▁had	-4413
▁Viking	-4414
BA	-4415
▁BUIL	-4416
▁improvements	-4417
▁sear	-4418
▁boiler	-4419
▁ob	-4420
▁toge	-4421
▁surroundings	-4422
ince	-4423
▁0822	-4424
▁Colts	-4425
▁refresh	-4426
▁galore	-4427
▁Bridgeton	-4428
▁woodwork	-4429
IES	-4430
▁Bayonne	-4431
▁treatments	-4432
rently	-4433
▁Build	-4434
▁Mid	-4435
▁ovens	-4436
▁Sm	-4437
▁beams	-4438
▁exposed	-4439
▁Jeff	-4440
/1	-4441
amped	-4442
▁0840	-4443
▁viewing	-4444
▁Neighbor	-4445
▁conveniences	-4446
▁Cons	-4447
▁Port	-4448
▁vacation	-4449
▁Var	-4450
▁Tra	-4451
▁agent	-4452
▁compl	-4453
▁Millburn	-4454
▁Bi	-4455
brace	-4456
▁0810	-4457
fr	-4458
▁TODAY	-4459
agine	-4460
▁FRONT	-4461
▁partial	-4462
IZED	-4463
entown	-4464
▁movie	-4465
▁serve	-4466
UCT	-4467
▁RAN	-4468
▁begin	-4469
▁advantage	-4470
▁FEN	-4471
▁pat	-4472
ersen	-4473
▁ATT	-4474
▁insulation	-4475
▁Sale	-4476
Eng	-4477
▁oil	-4478
aside	-4479
▁they	-4480
▁element	-4481
▁cod	-4482
▁eng	-4483
time	-4484
▁Rand	-4485
▁Estate	-4486
▁rented	-4487
▁enhance	-4488
▁largest	-4489
AX	-4490
be	-4491
rist	-4492
▁minute	-4493
▁ADD	-4494
▁sizes	-4495
izing	-4496
▁Stem	-4497
▁cold	-4498
ociation	-4499
▁Counter	-4500
▁Everything	-4501
▁Rog	-4502
iety	-4503
ified	-4504
▁ones	-4505
▁giving	-4506
eed	-4507
down	-4508
▁hood	-4509
▁river	-4510
▁barbecues	-4511
▁sport	-4512
Englishtown	-4513
proof	-4514
ART	-4515
Civ	-4516
▁esc	-4517
Civics	-4518
structed	-4519
▁dinner	-4520
▁47	-4521
▁shelves	-4522
iled	-4523
▁Trl	-4524
▁Partially	-4525
▁insurance	-4526
ented	-4527
▁these	-4528
▁renovations	-4529
▁Skyl	-4530
▁08742	-4531
▁Und	-4532
▁cover	-4533
erfield	-4534
▁Remodeled	-4535
UND	-4536
▁Han	-4537
▁attractive	-4538
▁Mant	-4539
▁owned	-4540
WAY	-4541
▁mention	-4542
ug	-4543
full	-4544
▁pal	-4545
irr	-4546
▁287	-4547
▁buy	-4548
▁Routes	-4549
▁Expansive	-4550
amb	-4551
▁Work	-4552
▁08094	-4553
▁BATHS	-4554
▁Neighborhood	-4555
▁0710	-4556
▁drain	-4557
▁seasons	-4558
ools	-4559
▁Wal	-4560
iling	-4561
▁GE	-4562
urch	-4563
▁saf	-4564
▁Andersen	-4565
▁PA	-4566
GRAD	-4567
▁firepit	-4568
▁business	-4569
OUR	-4570
▁AL	-4571
▁SO	-4572
▁07753	-4573
▁Rogers	-4574
▁Randolph	-4575
▁waterfall	-4576
des	-4577
▁ey	-4578
▁Act	-4579
▁DES	-4580
▁enthusiasts	-4581
▁Ke	-4582
enerational	-4583
▁pergola	-4584
▁Spectacular	-4585
▁six	-4586
unite	-4587
▁PERF	-4588
outdoor	-4589
▁certifications	-4590
45	-4591
▁flrs	-4592
▁purchase	-4593
▁Rockaway	-4594
▁Elegant	-4595
insula	-4596
▁Glassboro	-4597
▁9'	-4598
chant	-4599
▁Super	-4600
▁CLOSET	-4601
▁Histor	-4602
▁missed	-4603
ios	-4604
▁Middle	-4605
eninsula	-4606
▁accented	-4607
▁Hopatcong	-4608
ELY	-4609
▁gre	-4610
▁WILL	-4611
▁stream	-4612
nor	-4613
YARD	-4614
ived	-4615
ROUGH	-4616
▁cooktop	-4617
▁Jefferson	-4618
▁retractable	-4619
rib	-4620
auken	-4621
▁JUST	-4622
▁Mall	-4623
▁sense	-4624
▁Tinton	-4625
ri	-4626
▁Live	-4627
▁OVER	-4628
▁snow	-4629
umn	-4630
▁0730	-4631
▁Maria	-4632
▁photos	-4633
▁pickle	-4634
▁buses	-4635
▁Pennsauken	-4636
isco	-4637
▁LBI	-4638
▁42''	-4639
▁shared	-4640
TR	-4641
ELC	-4642
ONUS	-4643
▁150	-4644
echan	-4645
▁def	-4646
▁CLOSE	-4647
▁abound	-4648
▁Zone	-4649
▁Imagine	-4650
▁prot	-4651
▁bags	-4652
FR	-4653
resco	-4654
▁2014	-4655
▁trex	-4656
▁STORAGE	-4657
▁extends	-4658
ennial	-4659
resent	-4660
▁Marlton	-4661
▁US	-4662
▁Tax	-4663
briar	-4664
asure	-4665
UCTION	-4666
▁ferry	-4667
Up	-4668
▁Ut	-4669
ware	-4670
arta	-4671
▁08721	-4672
▁mot	-4673
berry	-4674
▁beyond	-4675
▁Hanover	-4676
▁someone	-4677
aken	-4678
▁Oaks	-4679
▁amp	-4680
low	-4681
▁Eng	-4682
▁That	-4683
▁Vern	-4684
▁Parking	-4685
life	-4686
▁Contin	-4687
▁highlighted	-4688
▁border	-4689
▁sunlit	-4690
oducing	-4691
▁THROUGH	-4692
▁BACKYARD	-4693
▁Vernon	-4694
▁variety	-4695
erton	-4696
omise	-4697
▁SCHOOL	-4698
▁Varisco	-4699
▁Woodland	-4700
67	-4701
▁vacant	-4702
▁history	-4703
▁EAT	-4704
▁dog	-4705
▁Smart	-4706
▁Sparta	-4707
▁connected	-4708
▁90	-4709
anor	-4710
▁elementary	-4711
▁Chef	-4712
▁UPGRAD	-4713
▁BONUS	-4714
▁Highways	-4715
mend	-4716
ahway	-4717
▁Play	-4718
▁Roselle	-4719
▁Refrigerator	-4720
ARM	-4721
ILE	-4722
ona	-4723
iered	-4724
▁blue	-4725
▁cab	-4726
▁showcas	-4727
▁suburban	-4728
▁Immaculate	-4729
▁08008	-4730
▁PERFECT	-4731
REE	-4732
▁AIR	-4733
ident	-4734
▁help	-4735
▁Rahway	-4736
▁occupancy	-4737
▁crawl	-4738
thers	-4739
ineered	-4740
▁stroll	-4741
▁Transportation	-4742
▁Septic	-4743
▁Ranc	-4744
▁(2021	-4745
▁continue	-4746
yc	-4747
uffle	-4748
▁Holland	-4749
ocas	-4750
ks	-4751
▁Clear	-4752
▁Rancocas	-4753
▁continues	-4754
:00	-4755
▁opt	-4756
▁benef	-4757
unction	-4758
▁dreams	-4759
▁complim	-4760
▁weather	-4761
▁Big	-4762
▁Fle	-4763
▁0880	-4764
▁clubs	-4765
▁disappointed	-4766
▁Fore	-4767
▁WELC	-4768
▁anyone	-4769
▁become	-4770
▁overlook	-4771
raz	-4772
▁Pem	-4773
▁welcomed	-4774
▁Timberline	-4775
AZ	-4776
▁pets	-4777
▁mantle	-4778
▁Greenbriar	-4779
▁Landing	-4780
▁Complete	-4781
remely	-4782
▁mount	-4783
▁Updates	-4784
drop	-4785
▁Pack	-4786
INGS	-4787
idence	-4788
oln	-4789
alow	-4790
▁Eves	-4791
▁Manor	-4792
▁Raritan	-4793
▁Cabinetry	-4794
▁remarkable	-4795
econ	-4796
scale	-4797
aun	-4798
▁BUY	-4799
FT	-4800
▁RED	-4801
▁mother	-4802
▁social	-4803
▁Ventnor	-4804
▁Upgrades	-4805
oke	-4806
▁Lin	-4807
ocket	-4808
▁Pond	-4809
iable	-4810
▁grow	-4811
▁billi	-4812
ora	-4813
uchen	-4814
▁them	-4815
mington	-4816
▁Evesham	-4817
ceiling	-4818
▁tenants	-4819
ocks	-4820
▁Lincoln	-4821
▁Dryer	-4822
OPP	-4823
hire	-4824
utter	-4825
▁showings	-4826
▁wooden	-4827
illy	-4828
▁DUE	-4829
acing	-4830
▁project	-4831
▁Luxury	-4832
▁stately	-4833
eam	-4834
ner	-4835
▁kay	-4836
ungalow	-4837
▁Seasons	-4838
la	-4839
▁VIEW	-4840
▁hosts	-4841
▁Maintained	-4842
▁Classic	-4843
ries	-4844
▁Hen	-4845
▁STEM	-4846
▁SPACE	-4847
Voorhees	-4848
occ	-4849
▁3.	-4850
▁Loft	-4851
▁Highest	-4852
▁Margate	-4853
▁Metuchen	-4854
▁Ring	-4855
▁Place	-4856
▁RANCH	-4857
eled	-4858
erve	-4859
STR	-4860
action	-4861
▁OFFER	-4862
▁tenant	-4863
▁Belmar	-4864
antine	-4865
▁Stove	-4866
▁kitchenette	-4867
New	-4868
▁Brig	-4869
atever	-4870
▁should	-4871
▁Crestwood	-4872
▁COMPLE	-4873
▁Seaside	-4874
▁memb	-4875
▁Investor	-4876
▁Principle	-4877
▁sav	-4878
UNDRY	-4879
school	-4880
▁Single	-4881
▁escape	-4882
ret	-4883
udy	-4884
▁Get	-4885
▁Read	-4886
ilter	-4887
▁Rare	-4888
▁tone	-4889
ULT	-4890
▁separ	-4891
▁butler	-4892
Car	-4893
▁(2019	-4894
▁prefer	-4895
▁3/4	-4896
ively	-4897
▁Inv	-4898
▁speak	-4899
▁forced	-4900
▁kitchens	-4901
▁residents	-4902
▁YEAR	-4903
▁cooling	-4904
▁Waterfront	-4905
eng	-4906
▁SL	-4907
▁STEEL	-4908
▁hobby	-4909
▁watch	-4910
AVE	-4911
not	-4912
▁effortlessly	-4913
▁08234	-4914
▁Ample	-4915
▁Ham	-4916
ANCE	-4917
ances	-4918
▁Final	-4919
▁greets	-4920
anoramic	-4921
▁peninsula	-4922
OUBLE	-4923
umber	-4924
▁ideally	-4925
tub	-4926
plore	-4927
▁leisure	-4928
INE	-4929
large	-4930
▁builder	-4931
▁tasteful	-4932
TE	-4933
rise	-4934
▁late	-4935
▁Rut	-4936
▁Most	-4937
▁Tons	-4938
▁DOORS	-4939
▁FENCED	-4940
▁EXP	-4941
▁autom	-4942
iron	-4943
tern	-4944
▁Homes	-4945
▁below	-4946
▁spark	-4947
▁Brigantine	-4948
▁OV	-4949
▁Pk	-4950
▁203	-4951
osit	-4952
irtual	-4953
▁IM	-4954
▁Its	-4955
▁Once	-4956
▁whirlpool	-4957
▁foc	-4958
▁obt	-4959
▁better	-4960
▁growing	-4961
Level	-4962
▁Cast	-4963
▁Retreat	-4964
▁Backsplash	-4965
ena	-4966
space	-4967
▁@	-4968
emi	-4969
▁fauc	-4970
▁(2020	-4971
▁08096	-4972
YL	-4973
NING	-4974
▁Generator	-4975
▁tow	-4976
▁Sunny	-4977
▁Haddonfield	-4978
ots	-4979
gers	-4980
mendous	-4981
▁together	-4982
▁thermostat	-4983
▁note	-4984
▁Millstone	-4985
▁Molding	-4986
▁DE	-4987
▁pour	-4988
iences	-4989
ify	-4990
▁MA	-4991
▁Nut	-4992
▁util	-4993
▁condo	-4994
▁zoned	-4995
▁Pitman	-4996
▁Mull	-4997
▁Perth	-4998
▁Junction	-4999
63	-5000
▁Sewell	-5001
▁Pemberton	-5002
▁Ins	-5003
LAND	-5004
▁OPP	-5005
▁Hum	-5006
▁Tucked	-5007
▁LAUNDRY	-5008
▁Multiple	-5009
▁serves	-5010
▁BO	-5011
iring	-5012
▁tall	-5013
▁Ferry	-5014
▁going	-5015
insville	-5016
▁sophisticated	-5017
▁Ft	-5018
▁Suns	-5019
OPPING	-5020
▁furnished	-5021
▁FIR	-5022
▁ever	-5023
▁Recre	-5024
▁remote	-5025
▁Sellers	-5026
▁forever	-5027
vey	-5028
▁6-	-5029
▁sid	-5030
▁Quick	-5031
▁hiking	-5032
ider	-5033
▁082	-5034
▁sided	-5035
▁Course	-5036
▁absolutely	-5037
▁Let	-5038
▁hang	-5039
▁parkway	-5040
▁desk	-5041
▁Henry	-5042
▁rocking	-5043
▁Historic	-5044
▁meticulous	-5045
▁sup	-5046
▁Poss	-5047
▁Brown	-5048
luestone	-5049
▁disappoint	-5050
razil	-5051
ires	-5052
▁(2022	-5053
▁Pella	-5054
▁Heated	-5055
▁Tennis	-5056
osch	-5057
▁07747	-5058
▁Leisure	-5059
▁WELCOME	-5060
▁Hillside	-5061
▁lim	-5062
▁Mills	-5063
ainsboro	-5064
▁Surround	-5065
▁(2018	-5066
laundry	-5067
▁accents	-5068
▁footage	-5069
▁backdrop	-5070
▁stations	-5071
▁Now	-5072
3,	-5073
▁Painted	-5074
INK	-5075
▁flanked	-5076
▁winning	-5077
▁accessed	-5078
▁entryway	-5079
risp	-5080
ending	-5081
ansburg	-5082
razilian	-5083
ARY	-5084
▁FIRST	-5085
▁boxes	-5086
▁OPPORT	-5087
▁Mullica	-5088
▁whatever	-5089
▁Keansburg	-5090
▁Pull	-5091
▁Carter	-5092
umberland	-5093
▁hospital	-5094
▁Riv	-5095
roach	-5096
Plainsboro	-5097
▁saltwater	-5098
▁206	-5099
enery	-5100
▁taken	-5101
▁Ceramic	-5102
▁49	-5103
▁SY	-5104
▁Base	-5105
ically	-5106
ogany	-5107
▁LAND	-5108
▁SHOPPING	-5109
▁Sick	-5110
▁iron	-5111
lusive	-5112
▁Flemington	-5113
▁commercial	-5114
▁Irv	-5115
dwell	-5116
▁WELL	-5117
▁Nutley	-5118
▁Ribbon	-5119
▁hidden	-5120
▁preserv	-5121
▁unwinding	-5122
back	-5123
pect	-5124
▁Ver	-5125
▁08080	-5126
▁Prime	-5127
▁showcasing	-5128
ewalk	-5129
▁DOUBLE	-5130
2,	-5131
▁295,	-5132
▁mechan	-5133
▁patios	-5134
▁stamped	-5135
▁Caldwell	-5136
▁centrally	-5137
hab	-5138
▁44	-5139
▁Mc	-5140
▁Acre	-5141
▁Edge	-5142
▁Lawn	-5143
▁lease	-5144
JOY	-5145
▁ELE	-5146
▁Highly	-5147
▁unb	-5148
arall	-5149
▁LAKE	-5150
▁Rail	-5151
▁08081	-5152
▁08857	-5153
▁sides	-5154
▁since	-5155
▁pretty	-5156
▁LOCATED	-5157
▁Rutgers	-5158
▁removal	-5159
UM	-5160
▁08816	-5161
Is	-5162
▁57	-5163
▁Ol	-5164
eries	-5165
▁THAT	-5166
▁beamed	-5167
▁chilly	-5168
aralleled	-5169
▁POR	-5170
▁CENTER	-5171
▁millwork	-5172
▁impressed	-5173
▁Absolutely	-5174
▁MODEL	-5175
▁PRICE	-5176
Dining	-5177
▁feeling	-5178
▁getaway	-5179
▁reading	-5180
▁Security	-5181
▁ver	-5182
▁mirr	-5183
▁contract	-5184
▁Wolf	-5185
▁Broad	-5186
▁bedrm	-5187
ironment	-5188
▁Early	-5189
▁Laminate	-5190
▁SF	-5191
▁Jill	-5192
▁Privacy	-5193
lerville	-5194
▁Chatham	-5195
▁Cumberland	-5196
▁require	-5197
▁plantings	-5198
▁SQ	-5199
poses	-5200
▁mult	-5201
▁Belle	-5202
▁rough	-5203
▁fields	-5204
▁sports	-5205
▁dinning	-5206
▁Enclosed	-5207
▁Robb	-5208
uffleboard	-5209
Maple	-5210
▁epit	-5211
▁Berlin	-5212
▁Cathedral	-5213
▁INV	-5214
▁shade	-5215
82	-5216
▁MAN	-5217
▁cam	-5218
▁che	-5219
amboo	-5220
▁08046	-5221
▁Bosch	-5222
STEM	-5223
▁120	-5224
▁Sprinkler	-5225
▁perennial	-5226
▁110	-5227
▁Prem	-5228
▁ENJOY	-5229
▁Amenities	-5230
▁plans	-5231
▁Forest	-5232
▁SYSTEM	-5233
▁bills	-5234
▁FLOORING	-5235
▁families	-5236
▁OPPORTUNITY	-5237
earth	-5238
▁Bell	-5239
▁BUILT	-5240
▁4.5	-5241
▁Elm	-5242
ength	-5243
▁holds	-5244
▁children	-5245
▁unparalleled	-5246
▁500	-5247
▁Lav	-5248
▁awesome	-5249
▁BL	-5250
▁party	-5251
▁transformed	-5252
▁Sicklerville	-5253
ASS	-5254
▁295	-5255
ITIES	-5256
▁sweet	-5257
▁Ho	-5258
▁Design	-5259
▁Brazilian	-5260
▁neighbors	-5261
▁something	-5262
ury	-5263
IP	-5264
ERTAIN	-5265
▁Flood	-5266
▁Buyers	-5267
aves	-5268
wall	-5269
▁appl	-5270
▁sellers	-5271
▁leave	-5272
▁Carteret	-5273
▁pocket	-5274
aled	-5275
▁Mud	-5276
▁SLID	-5277
▁Owners	-5278
/5	-5279
▁Wind	-5280
▁grace	-5281
▁hardware	-5282
▁Pal	-5283
▁Tuck	-5284
▁railings	-5285
orses	-5286
▁Parks	-5287
▁worry	-5288
▁expense	-5289
▁PM	-5290
▁08332	-5291
▁alarm	-5292
▁weekend	-5293
▁Vanity	-5294
▁Greenwich	-5295
▁Wa	-5296
▁lines	-5297
▁SHOWER	-5298
▁Sciences	-5299
▁400	-5300
ERY	-5301
▁Mend	-5302
ordinary	-5303
▁various	-5304
axim	-5305
▁Ass	-5306
armon	-5307
▁plush	-5308
▁Pennsville	-5309
▁TUB	-5310
▁Ten	-5311
▁Start	-5312
▁beverage	-5313
▁panoramic	-5314
sm	-5315
ars	-5316
▁crisp	-5317
▁prior	-5318
▁ENTERTAIN	-5319
▁impeccable	-5320
▁prom	-5321
Maplewood	-5322
STRUCTION	-5323
▁Sund	-5324
▁store	-5325
nington	-5326
▁Harris	-5327
▁palette	-5328
▁environment	-5329
▁Robbinsville	-5330
iddle	-5331
granite	-5332
▁brings	-5333
▁0787	-5334
▁rain	-5335
▁Therm	-5336
▁Heating	-5337
▁(2023	-5338
▁Occup	-5339
----	-5340
more	-5341
▁blank	-5342
▁really	-5343
▁captivating	-5344
sea	-5345
▁Dun	-5346
▁bow	-5347
▁Clark	-5348
▁insert	-5349
▁approach	-5350
ray	-5351
bies	-5352
▁Cra	-5353
▁HOT	-5354
vious	-5355
▁coffered	-5356
▁entertainer	-5357
▁While	-5358
▁monthly	-5359
▁awaiting	-5360
▁Magnificent	-5361
▁4,	-5362
▁eye	-5363
eeping	-5364
▁upscale	-5365
▁Achievers	-5366
oi	-5367
▁convers	-5368
▁decorated	-5369
▁HIGHEST	-5370
▁dur	-5371
▁vent	-5372
▁Unity	-5373
▁await	-5374
▁lakes	-5375
▁Market	-5376
▁Robert	-5377
▁premier	-5378
▁grilling	-5379
div	-5380
▁TOP	-5381
▁cat	-5382
▁dim	-5383
▁PORCH	-5384
▁Burning	-5385
▁Promise	-5386
▁contains	-5387
▁homeowner	-5388
.)	-5389
▁(1	-5390
▁Clearview	-5391
▁focal	-5392
▁Airport	-5393
▁turnkey	-5394
▁Inviting	-5395
▁Av	-5396
ayton	-5397
▁Tank	-5398
▁flower	-5399
▁CABINETS	-5400
▁purposes	-5401
▁Incredible	-5402
edge	-5403
ristown	-5404
drenched	-5405
nge	-5406
▁07719	-5407
▁points	-5408
▁Mendham	-5409
▁COMMUNITY	-5410
▁accessibility	-5411
▁HE	-5412
▁THROUGHOUT	-5413
▁Price	-5414
▁customize	-5415
▁Unfinished	-5416
OCK	-5417
▁Rox	-5418
orne	-5419
▁CENTRAL	-5420
▁crafted	-5421
▁heaters	-5422
▁CONSTRUCTION	-5423
▁array	-5424
storage	-5425
▁Castle	-5426
▁creative	-5427
▁Recreation	-5428
49	-5429
▁II	-5430
▁yr	-5431
pass	-5432
allad	-5433
▁Cinn	-5434
▁Swed	-5435
▁Another	-5436
▁whether	-5437
SC	-5438
aped	-5439
▁Pkwy	-5440
▁Terr	-5441
▁Camdens	-5442
▁Pleasantville	-5443
▁65	-5444
etime	-5445
gas	-5446
▁know	-5447
▁08053	-5448
▁ADDITION	-5449
FF	-5450
▁07712	-5451
rances	-5452
▁outlet	-5453
omp	-5454
opper	-5455
▁sparkling	-5456
MAL	-5457
▁far	-5458
▁Included	-5459
▁COND	-5460
▁Taxes	-5461
▁address	-5462
▁Chestnut	-5463
▁Morristown	-5464
uct	-5465
▁CAN	-5466
▁fees	-5467
▁toys	-5468
▁Swedes	-5469
RIC	-5470
abl	-5471
build	-5472
endant	-5473
anities	-5474
▁engineered	-5475
▁Tod	-5476
▁cup	-5477
▁PLAN	-5478
▁evident	-5479
▁impeccably	-5480
ama	-5481
ause	-5482
ustle	-5483
ivated	-5484
▁Dover	-5485
▁filter	-5486
▁Cinnamin	-5487
▁speakers	-5488
etown	-5489
▁07470	-5490
▁seasonal	-5491
▁bluestone	-5492
▁Ge	-5493
acuum	-5494
▁08055	-5495
▁lender	-5496
▁Mem	-5497
▁Camp	-5498
▁Columb	-5499
▁always	-5500
▁financing	-5501
▁Providence	-5502
ua	-5503
monton	-5504
LD	-5505
▁Sandy	-5506
▁Perfectly	-5507
▁ensure	-5508
▁length	-5509
▁Southampton	-5510
▁Professionally	-5511
als	-5512
kind	-5513
▁itself	-5514
▁Hammonton	-5515
▁AB	-5516
▁Wins	-5517
▁HEATER	-5518
▁Chester	-5519
▁...	-5520
▁CLUB	-5521
▁Good	-5522
inette	-5523
▁Right	-5524
▁Swedesboro	-5525
▁Cinnaminson	-5526
era	-5527
▁SEC	-5528
allette	-5529
▁desire	-5530
▁height	-5531
▁costs	-5532
▁Season	-5533
▁Irvington	-5534
▁waterproof	-5535
▁BAR	-5536
▁Pen	-5537
▁Wow	-5538
astern	-5539
ursery	-5540
versize	-5541
▁organiz	-5542
95	-5543
▁uses	-5544
Family	-5545
▁Shade	-5546
▁TAX	-5547
▁Lavallette	-5548
generational	-5549
▁iss	-5550
▁Have	-5551
Aberdeen	-5552
▁watching	-5553
▁sunset	-5554
▁woodburning	-5555
▁tones	-5556
▁Dishwasher	-5557
▁Humanities	-5558
▁STUN	-5559
▁Rancher	-5560
▁41	-5561
▁Unique	-5562
dy	-5563
ALLY	-5564
▁Real	-5565
▁Springfield	-5566
QU	-5567
▁TILE	-5568
▁08054	-5569
▁floored	-5570
read	-5571
▁Fin	-5572
▁automatic	-5573
rought	-5574
▁Roxbury	-5575
▁Winslow	-5576
▁sidewalk	-5577
▁Colon	-5578
▁maxim	-5579
▁Morgan	-5580
essential	-5581
▁Denville	-5582
▁il	-5583
▁Last	-5584
▁desc	-5585
custom	-5586
▁fresco	-5587
▁typ	-5588
▁Sunday	-5589
ms	-5590
▁Kingsway	-5591
▁masterpiece	-5592
ateries	-5593
▁tremendous	-5594
OTH	-5595
utch	-5596
▁Sunset	-5597
itely	-5598
▁08012	-5599
▁Today	-5600
▁Keyport	-5601
▁Centrally	-5602
▁foundation	-5603
▁Active	-5604
▁Aw	-5605
some	-5606
▁MIN	-5607
▁ONLY	-5608
elves	-5609
▁Trail	-5610
ervatory	-5611
▁removed	-5612
▁Certific	-5613
▁interest	-5614
(20	-5615
ses	-5616
eson	-5617
▁Coll	-5618
▁Prop	-5619
▁semi	-5620
VERY	-5621
▁Phill	-5622
ablished	-5623
▁43	-5624
anks	-5625
▁SOLD	-5626
▁08088	-5627
▁Calif	-5628
▁Continue	-5629
▁Cap	-5630
▁MAINT	-5631
▁Verona	-5632
▁Harrison	-5633
▁Appr	-5634
▁again	-5635
▁dispos	-5636
olidated	-5637
▁Mastery	-5638
emed	-5639
umns	-5640
▁REM	-5641
addle	-5642
▁FURN	-5643
▁MU	-5644
raction	-5645
▁Robeson	-5646
▁Consolidated	-5647
▁Needs	-5648
▁enchant	-5649
▁once	-5650
▁feels	-5651
▁extremely	-5652
▁Ag	-5653
ture	-5654
ideal	-5655
ustic	-5656
▁FULLY	-5657
▁OVERS	-5658
▁Tiled	-5659
▁taking	-5660
arant	-5661
▁Brad	-5662
▁incl	-5663
▁Adorable	-5664
NER	-5665
esth	-5666
ging	-5667
▁(2017	-5668
▁MUCH	-5669
▁VIEWS	-5670
41	-5671
yn	-5672
this	-5673
shire	-5674
▁Overl	-5675
▁Impress	-5676
▁STUNNING	-5677
CO	-5678
SE	-5679
bl	-5680
▁07735	-5681
▁stack	-5682
▁outstanding	-5683
▁say	-5684
▁08360	-5685
▁mini	-5686
▁surp	-5687
itting	-5688
▁present	-5689
▁lit	-5690
▁Cross	-5691
▁steam	-5692
ety	-5693
icip	-5694
ember	-5695
▁Mantua	-5696
▁spared	-5697
▁CEILINGS	-5698
▁!!	-5699
gram	-5700
▁SAL	-5701
▁posit	-5702
▁ISLAND	-5703
▁envision	-5704
▁striking	-5705
ds	-5706
▁dinners	-5707
ortg	-5708
boken	-5709
crest	-5710
▁Miss	-5711
oating	-5712
▁07090	-5713
Off	-5714
Sac	-5715
▁ideas	-5716
▁mechanical	-5717
effici	-5718
▁Delran	-5719
▁exit	-5720
▁seen	-5721
living	-5722
utility	-5723
AZING	-5724
grove	-5725
▁Warm	-5726
▁term	-5727
▁Tuckerton	-5728
▁customization	-5729
▁lift	-5730
▁function	-5731
ador	-5732
▁Bilco	-5733
▁Welcom	-5734
▁Currently	-5735
equ	-5736
▁entrances	-5737
ese	-5738
▁vol	-5739
lumin	-5740
▁07083	-5741
▁INVEST	-5742
▁openers	-5743
▁Beachwood	-5744
▁practicality	-5745
▁300	-5746
▁Haw	-5747
▁arrive	-5748
ellar	-5749
▁FORMAL	-5750
▁provided	-5751
▁Completing	-5752
ode	-5753
▁9,	-5754
▁Decor	-5755
▁Hoboken	-5756
▁Ideally	-5757
▁balance	-5758
▁hardscap	-5759
ISS	-5760
bage	-5761
bell	-5762
▁BAY	-5763
▁2021.	-5764
▁final	-5765
▁eateries	-5766
▁Maintenance	-5767
vy	-5768
med	-5769
▁grade	-5770
eatable	-5771
▁Includes	-5772
ATOR	-5773
▁inf	-5774
arters	-5775
acle	-5776
ffic	-5777
EY	-5778
▁Rep	-5779
▁VERY	-5780
▁wild	-5781
aurant	-5782
▁Olive	-5783
▁Sweet	-5784
▁epitome	-5785
▁Contemporary	-5786
▁shuffleboard	-5787
▁Next	-5788
▁Third	-5789
▁caref	-5790
▁Totally	-5791
ope	-5792
▁CR	-5793
▁mid	-5794
▁conf	-5795
▁EVERY	-5796
▁common	-5797
nie	-5798
▁Lam	-5799
▁Lib	-5800
▁Mans	-5801
▁Mays	-5802
▁08540	-5803
▁Steps	-5804
▁Much	-5805
ameless	-5806
▁cooler	-5807
▁AMAZING	-5808
▁OVERSIZED	-5809
▁Bord	-5810
▁Farms	-5811
▁because	-5812
▁Hospital	-5813
▁SIT	-5814
▁2019.	-5815
▁restored	-5816
▁doc	-5817
▁08854	-5818
▁Nearby	-5819
▁carport	-5820
▁drenched	-5821
▁rece	-5822
▁wash	-5823
ingdale	-5824
▁Except	-5825
▁Phillips	-5826
▁attraction	-5827
64	-5828
iced	-5829
itage	-5830
GROUND	-5831
▁rehab	-5832
▁0.	-5833
▁MARK	-5834
▁paths	-5835
▁Philly	-5836
▁choose	-5837
▁comforts	-5838
jest	-5839
▁Comfort	-5840
▁standout	-5841
▁Readington	-5842
erties	-5843
▁guarant	-5844
▁preserved	-5845
▁Generac	-5846
▁Pennington	-5847
▁walkways	-5848
PR	-5849
URE	-5850
▁tw	-5851
▁1.5-	-5852
▁Oasis	-5853
erfully	-5854
▁reflect	-5855
eter	-5856
▁07746	-5857
▁bungalow	-5858
▁CONDITION	-5859
▁fam	-5860
▁Dont	-5861
▁MARKET	-5862
▁Luxurious	-5863
▁HAVE	-5864
ortgage	-5865
daughter	-5866
▁extraordinary	-5867
ration	-5868
▁benefits	-5869
ever	-5870
▁hill	-5871
▁ren	-5872
▁plantation	-5873
▁Foundations	-5874
▁sleep	-5875
tops	-5876
▁BDR	-5877
ornia	-5878
▁LEAD	-5879
▁Hawth	-5880
▁settle	-5881
▁Bordentown	-5882
roft	-5883
▁Buck	-5884
▁fast	-5885
ospect	-5886
▁Round	-5887
▁Eastern	-5888
yllic	-5889
▁Knoll	-5890
▁aesth	-5891
▁route	-5892
▁pendant	-5893
van	-5894
▁08610	-5895
▁Entrance	-5896
ASE	-5897
▁Wil	-5898
▁shine	-5899
▁GR	-5900
amsung	-5901
▁mould	-5902
▁shown	-5903
▁hearth	-5904
▁explore	-5905
oin	-5906
▁DRIV	-5907
▁Dual	-5908
▁runs	-5909
▁COUNTERS	-5910
EWAY	-5911
▁lounge	-5912
▁optional	-5913
▁Potential	-5914
VEN	-5915
ett	-5916
ULTI	-5917
sted	-5918
▁Bal	-5919
▁cert	-5920
▁TAXES	-5921
▁Hawthorne	-5922
▁immediate	-5923
78	-5924
****	-5925
▁takes	-5926
▁pickleball	-5927
IME	-5928
▁mah	-5929
▁remaining	-5930
▁homeowners	-5931
aid	-5932
ENER	-5933
noon	-5934
▁!!!	-5935
▁ice	-5936
▁Char	-5937
▁Star	-5938
▁mins	-5939
OIN	-5940
AIRS	-5941
close	-5942
▁Pres	-5943
▁OFFICE	-5944
▁Sought	-5945
▁bathed	-5946
▁billiards	-5947
▁DO	-5948
irch	-5949
▁07052	-5950
▁Ob	-5951
SCAP	-5952
▁END	-5953
▁08205	-5954
▁Blackwood	-5955
ARE	-5956
▁sky	-5957
AIL	-5958
ESSED	-5959
owned	-5960
▁TRAN	-5961
▁cave	-5962
intage	-5963
▁Morganville	-5964
▁playgrounds	-5965
rews	-5966
▁Treat	-5967
▁elevator	-5968
quet	-5969
ended	-5970
iendly	-5971
▁2022.	-5972
▁PAIN	-5973
▁Above	-5974
▁Picture	-5975
▁starting	-5976
▁58	-5977
usic	-5978
fitted	-5979
▁Sat	-5980
▁swim	-5981
▁instant	-5982
▁COME	-5983
▁Liberty	-5984
▁Samsung	-5985
▁describ	-5986
▁disposal	-5987
▁quite	-5988
▁request	-5989
▁downsize	-5990
oth	-5991
inas	-5992
▁125	-5993
▁Exceptional	-5994
▁law	-5995
▁hobbies	-5996
9,	-5997
dom	-5998
uth	-5999
cher	-6000
iamond	-6001
▁Colonia	-6002
▁unbeatable	-6003
lure	-6004
▁perm	-6005
▁Browns	-6006
▁turned	-6007
▁115	-6008
▁Vac	-6009
▁Hollow	-6010
▁workout	-6011
▁attractions	-6012
ONS	-6013
ACHED	-6014
▁arched	-6015
▁gunite	-6016
▁columns	-6017
▁Waretown	-6018
▁exclusive	-6019
▁communities	-6020
▁0890	-6021
erford	-6022
▁Lambert	-6023
▁virtual	-6024
▁electricity	-6025
NEW	-6026
▁Bas	-6027
▁thr	-6028
▁south	-6029
▁DRIVEWAY	-6030
Pr	-6031
▁07701	-6032
inct	-6033
▁RT	-6034
emand	-6035
▁2020.	-6036
▁DESIR	-6037
▁games	-6038
▁stage	-6039
▁Northfield	-6040
.1	-6041
ebr	-6042
▁id	-6043
▁beck	-6044
▁money	-6045
▁struc	-6046
▁allure	-6047
▁illumin	-6048
▁Phillipsburg	-6049
▁responsibility	-6050
110	-6051
302	-6052
ATUR	-6053
nton	-6054
▁cut	-6055
ivity	-6056
▁cute	-6057
▁Under	-6058
▁Mae	-6059
▁Time	-6060
▁Fannie	-6061
SIDE	-6062
▁Clean	-6063
▁Inground	-6064
▁Lovingly	-6065
▁Mainland	-6066
▁LG	-6067
▁summ	-6068
▁garages	-6069
▁comfortably	-6070
DOOR	-6071
▁Heritage	-6072
▁mahogany	-6073
▁2.1	-6074
▁spec	-6075
▁faucet	-6076
▁Thermador	-6077
▁51	-6078
auna	-6079
▁Fox	-6080
imney	-6081
nging	-6082
▁rack	-6083
▁tools	-6084
▁middle	-6085
▁Designed	-6086
▁California	-6087
▁CLOSETS	-6088
▁Equ	-6089
▁sign	-6090
▁cannot	-6091
▁afternoon	-6092
▁hardwoods	-6093
▁Landscaping	-6094
OPS	-6095
▁Abs	-6096
▁bilco	-6097
▁SELLER	-6098
Tr	-6099
aver	-6100
▁Manh	-6101
▁Boasts	-6102
▁sweeping	-6103
tr	-6104
inch	-6105
▁Wor	-6106
▁pine	-6107
▁idyllic	-6108
▁LANDSCAP	-6109
▁Mansfield	-6110
▁association	-6111
▁UNIT	-6112
▁places	-6113
▁rustic	-6114
▁suites	-6115
▁vacuum	-6116
designed	-6117
▁secondary	-6118
Out	-6119
▁Stall	-6120
▁Coming	-6121
Bedroom	-6122
▁Library	-6123
▁enhancing	-6124
sq	-6125
▁Fall	-6126
olling	-6127
▁08204	-6128
▁08302	-6129
▁2018,	-6130
▁After	-6131
oolwich	-6132
▁subdiv	-6133
!)	-6134
▁Go	-6135
sboro	-6136
▁Sher	-6137
▁throw	-6138
▁approximate	-6139
DE	-6140
SH	-6141
▁54	-6142
neath	-6143
where	-6144
▁Tree	-6145
incess	-6146
▁(2016	-6147
▁MULTI	-6148
▁wired	-6149
▁Rivers	-6150
▁things	-6151
▁travel	-6152
▁represent	-6153
attan	-6154
ipped	-6155
▁08016	-6156
▁2019,	-6157
▁2021,	-6158
▁alike	-6159
▁Indian	-6160
▁Ringwood	-6161
ha	-6162
▁Why	-6163
▁lav	-6164
▁Neutral	-6165
he	-6166
▁59	-6167
▁MISS	-6168
▁swing	-6169
▁Absecon	-6170
▁elevated	-6171
maintenance	-6172
▁connecting	-6173
59	-6174
ubs	-6175
vent	-6176
▁Ram	-6177
▁Cash	-6178
▁mater	-6179
▁setup	-6180
▁Finish	-6181
▁horses	-6182
▁aesthetic	-6183
.00	-6184
▁18,	-6185
▁ACC	-6186
igible	-6187
▁towns	-6188
▁Reserv	-6189
▁lifetime	-6190
▁quarters	-6191
ryst	-6192
Newer	-6193
shine	-6194
▁BEEN	-6195
▁08873	-6196
▁Development	-6197
OON	-6198
▁name	-6199
▁bdrms	-6200
▁Utility	-6201
▁existing	-6202
AINED	-6203
ras	-6204
▁Nicely	-6205
▁Willow	-6206
▁altern	-6207
OOKING	-6208
▁oversize	-6209
udor	-6210
▁0750	-6211
solute	-6212
▁switch	-6213
▁Kingdom	-6214
BOR	-6215
▁Class	-6216
▁FINAL	-6217
oud	-6218
▁75,	-6219
▁Field	-6220
▁Manhattan	-6221
bar	-6222
raft	-6223
▁Val	-6224
ening	-6225
▁2013	-6226
rystal	-6227
▁among	-6228
▁CUL	-6229
▁BBQs	-6230
▁Curb	-6231
▁ramp	-6232
▁2018.	-6233
▁bones	-6234
▁Tastef	-6235
▁(3	-6236
▁Certificate	-6237
ICH	-6238
▁beat	-6239
▁2020,	-6240
▁railing	-6241
▁enchanting	-6242
awr	-6243
▁105	-6244
▁Lif	-6245
FRONT	-6246
▁enjoys	-6247
▁lounging	-6248
▁overhead	-6249
▁perfection	-6250
TING	-6251
▁shi	-6252
▁Gate	-6253
▁June	-6254
▁happ	-6255
luding	-6256
▁Listing	-6257
appr	-6258
75	-6259
ACUL	-6260
▁Boo	-6261
▁LIST	-6262
▁Obama	-6263
▁Barack	-6264
▁checks	-6265
▁Oceanport	-6266
▁frameless	-6267
▁outfitted	-6268
▁9-	-6269
▁elements	-6270
▁Investment	-6271
▁delay	-6272
▁floating	-6273
▁intimate	-6274
sl	-6275
▁ss	-6276
▁STRE	-6277
▁Ther	-6278
Office	-6279
▁08822	-6280
▁reach	-6281
▁cred	-6282
▁enjoyed	-6283
▁Belleville	-6284
▁Regionalschool	-6285
nual	-6286
▁2000	-6287
▁loaded	-6288
▁chimney	-6289
▁detailed	-6290
▁terrific	-6291
00+	-6292
set	-6293
▁Clayton	-6294
▁Pictures	-6295
▁68	-6296
OYER	-6297
▁2023.	-6298
▁Stair	-6299
▁bamboo	-6300
▁regard	-6301
▁enhances	-6302
aged	-6303
▁Embrace	-6304
▁Aberdeen	-6305
▁10-	-6306
▁Love	-6307
▁Plum	-6308
▁08817	-6309
▁spread	-6310
▁Collings	-6311
▁protected	-6312
▁established	-6313
Fan	-6314
ials	-6315
▁08075	-6316
▁record	-6317
▁garbage	-6318
▁Montville	-6319
▁constructed	-6320
▁LAST	-6321
ontown	-6322
▁08865	-6323
▁search	-6324
▁lighted	-6325
▁Lambertville	-6326
lor	-6327
bank	-6328
green	-6329
▁horse	-6330
▁COR	-6331
▁occ	-6332
▁worlds	-6333
▁nursery	-6334
iqu	-6335
▁85	-6336
▁Amer	-6337
▁groc	-6338
▁FOYER	-6339
▁GENER	-6340
▁chang	-6341
▁promis	-6342
▁inspection	-6343
▁Ser	-6344
▁tast	-6345
▁08226	-6346
▁LV	-6347
▁dif	-6348
▁accept	-6349
▁customized	-6350
02	-6351
▁--	-6352
▁Circ	-6353
▁Path	-6354
▁Size	-6355
▁PAVER	-6356
▁Slider	-6357
▁cash	-6358
rington	-6359
▁Bro	-6360
▁cou	-6361
▁Bdrm	-6362
ousing	-6363
▁07724	-6364
▁08015	-6365
▁2022,	-6366
▁Investors	-6367
BB	-6368
lyn	-6369
burner	-6370
ickory	-6371
▁08807	-6372
▁storm	-6373
Fanwood	-6374
▁Calling	-6375
▁greenery	-6376
▁Commuters	-6377
▁Occupancy	-6378
IKE	-6379
▁08330	-6380
▁Campus	-6381
▁Mother	-6382
ireplace	-6383
▁traffic	-6384
▁Prospect	-6385
▁BDRM	-6386
▁north	-6387
▁lasting	-6388
▁140	-6389
uction	-6390
▁07040	-6391
▁08003	-6392
▁ADDITIONAL	-6393
ISH	-6394
Home	-6395
▁Mot	-6396
▁standing	-6397
▁workspace	-6398
▁Somerville	-6399
REAM	-6400
▁Find	-6401
▁Gardens	-6402
▁imagine	-6403
iltration	-6404
▁conditioner	-6405
azed	-6406
ikes	-6407
▁MAKE	-6408
ailing	-6409
▁enclos	-6410
▁quickly	-6411
▁UPGRADED	-6412
▁properties	-6413
uous	-6414
▁Orch	-6415
UP	-6416
▁Asc	-6417
▁Tab	-6418
▁0831	-6419
▁COUR	-6420
▁Aug	-6421
▁ban	-6422
▁spans	-6423
▁Photos	-6424
▁harmon	-6425
▁pleasure	-6426
enb	-6427
▁53	-6428
▁By	-6429
ULOUS	-6430
ealth	-6431
reezer	-6432
▁BRICK	-6433
▁SECOND	-6434
▁facade	-6435
▁sel	-6436
idges	-6437
ifier	-6438
▁Oven	-6439
▁Qual	-6440
▁Screen	-6441
▁lavish	-6442
▁deliver	-6443
▁pot	-6444
▁Insp	-6445
▁else	-6446
▁Concrete	-6447
▁95	-6448
mawr	-6449
▁108	-6450
▁wow	-6451
▁tiered	-6452
▁Deerfield	-6453
Sh	-6454
oes	-6455
jestic	-6456
▁2017.	-6457
▁Shrews	-6458
▁Shrewsbury	-6459
▁ENTERTAINING	-6460
▁Aud	-6461
▁July	-6462
▁Wide	-6463
▁Birch	-6464
▁COMPLET	-6465
▁install	-6466
▁approval	-6467
▁utilized	-6468
▁searching	-6469
IBLE	-6470
▁08820	-6471
▁vintage	-6472
▁previous	-6473
▁underneath	-6474
/24	-6475
▁52	-6476
▁08844	-6477
▁flooded	-6478
rent	-6479
▁CAC	-6480
▁Tudor	-6481
-20	-6482
her	-6483
nol	-6484
icket	-6485
Thomas	-6486
▁08057	-6487
▁Delsea	-6488
▁Newton	-6489
▁dimens	-6490
eras	-6491
ibly	-6492
worth	-6493
▁Tues	-6494
▁Heart	-6495
▁Beyond	-6496
▁landing	-6497
▁Florence	-6498
▁Lakeview	-6499
▁handsome	-6500
▁suitable	-6501
▁Carpeting	-6502
▁refreshed	-6503
▁56	-6504
▁Villas	-6505
▁chairs	-6506
▁COUNTERT	-6507
▁mortgage	-6508
▁Eatontown	-6509
▁VIN	-6510
▁fix	-6511
ivate	-6512
urday	-6513
ylvan	-6514
▁Easton	-6515
▁refined	-6516
▁distinct	-6517
▁organizers	-6518
smt	-6519
THER	-6520
▁hole	-6521
▁Bound	-6522
▁cellar	-6523
▁abounds	-6524
▁BRE	-6525
▁Landscaped	-6526
▁FT	-6527
▁MOLD	-6528
▁duct	-6529
▁WHICH	-6530
▁Delight	-6531
▁Riverside	-6532
▁Impecc	-6533
▁RECESSED	-6534
▁ask	-6535
unicip	-6536
▁Award	-6537
▁These	-6538
▁Walnut	-6539
▁combined	-6540
cur	-6541
▁occas	-6542
AUL	-6543
ene	-6544
onday	-6545
▁Butler	-6546
unicipal	-6547
▁Impressive	-6548
▁membership	-6549
▁Gold	-6550
▁08550	-6551
▁Marble	-6552
▁Pristine	-6553
▁bookcases	-6554
▁captivated	-6555
▁soak	-6556
▁07733	-6557
▁possibility	-6558
ades	-6559
AULTED	-6560
▁07730	-6561
▁Range	-6562
▁framed	-6563
▁Boonton	-6564
▁Premium	-6565
▁highest	-6566
▁Saturday	-6567
▁te	-6568
▁Like	-6569
▁Rich	-6570
▁dark	-6571
▁Block	-6572
▁STREET	-6573
▁Microwave	-6574
▁MAINTAINED	-6575
▁Strat	-6576
ornings	-6577
wd	-6578
erning	-6579
▁differ	-6580
▁spring	-6581
ucco	-6582
ering	-6583
nolia	-6584
sided	-6585
▁Tops	-6586
▁surf	-6587
▁Monday	-6588
▁FURNACE	-6589
▁positioned	-6590
▁log	-6591
mount	-6592
▁Linwood	-6593
251	-6594
ielle	-6595
riage	-6596
▁SALE	-6597
▁gray	-6598
▁defin	-6599
▁Include	-6600
▁LIGHTING	-6601
▁Highlights	-6602
▁alternative	-6603
dated	-6604
▁08060	-6605
▁drawer	-6606
▁secure	-6607
▁apartments	-6608
ENTY	-6609
plap	-6610
▁Then	-6611
▁Troy	-6612
▁chic	-6613
▁Entering	-6614
▁anything	-6615
▁matching	-6616
-29	-6617
▁ACT	-6618
▁CARP	-6619
▁Pomp	-6620
▁Stud	-6621
▁east	-6622
ressway	-6623
▁Church	-6624
▁mantel	-6625
▁Foundation	-6626
▁FE	-6627
▁cal	-6628
▁2015	-6629
▁Intr	-6630
▁ZONE	-6631
▁ROOMS	-6632
▁theat	-6633
erglass	-6634
▁PRE	-6635
▁Meadows	-6636
/23	-6637
OLF	-6638
egot	-6639
▁SID	-6640
▁leg	-6641
▁DREAM	-6642
▁Sized	-6643
▁Endless	-6644
ails	-6645
▁wid	-6646
iberglass	-6647
onderfully	-6648
vl	-6649
TRA	-6650
oop	-6651
Bath	-6652
imal	-6653
▁WALL	-6654
▁Effici	-6655
ged	-6656
▁67	-6657
aved	-6658
ental	-6659
orial	-6660
▁Alex	-6661
▁08251	-6662
▁curved	-6663
▁embrace	-6664
osm	-6665
▁shines	-6666
outs	-6667
▁RES	-6668
entry	-6669
alladium	-6670
▁Oakland	-6671
▁Collingswood	-6672
ENCH	-6673
▁TRE	-6674
▁07751	-6675
▁07960	-6676
▁James	-6677
▁RIGHT	-6678
▁Raised	-6679
including	-6680
ows	-6681
▁Wed	-6682
▁shr	-6683
▁outlets	-6684
pan	-6685
▁mix	-6686
raight	-6687
▁music	-6688
▁belong	-6689
▁beckons	-6690
▁Lawrenceville	-6691
ume	-6692
▁WOR	-6693
▁Jenn	-6694
friendly	-6695
▁Bradley	-6696
▁Prepare	-6697
▁services	-6698
▁109	-6699
icens	-6700
phalt	-6701
▁287,	-6702
▁Entire	-6703
▁gutter	-6704
▁leased	-6705
▁Concept	-6706
NDER	-6707
▁zones	-6708
▁Arlington	-6709
DA	-6710
▁ep	-6711
▁ski	-6712
apter	-6713
▁wish	-6714
▁07003	-6715
winning	-6716
▁Brielle	-6717
▁Hampton	-6718
▁Tuesday	-6719
▁marinas	-6720
▁rebuilt	-6721
▁Skylights	-6722
TO	-6723
Zero	-6724
ergo	-6725
ilig	-6726
▁sip	-6727
▁wind	-6728
▁Solid	-6729
▁Pompton	-6730
▁Memorial	-6731
ulge	-6732
▁veg	-6733
rises	-6734
▁CALL	-6735
▁Ever	-6736
▁Nest	-6737
▁2017,	-6738
▁VINYL	-6739
▁chefs	-6740
▁porches	-6741
▁Welcoming	-6742
ONG	-6743
oga	-6744
▁SEPT	-6745
▁ENTRY	-6746
▁Peace	-6747
▁Bellmawr	-6748
CL	-6749
rey	-6750
▁cr	-6751
▁08758	-6752
▁Duplex	-6753
▁Cambridge	-6754
▁discerning	-6755
ESH	-6756
.....	-6757
▁Dutch	-6758
▁motor	-6759
osmetic	-6760
▁follow	-6761
▁issues	-6762
▁sunshine	-6763
▁Audub	-6764
▁topped	-6765
▁serviced	-6766
▁Tastefully	-6767
▁Opt	-6768
▁ton	-6769
great	-6770
▁Audubon	-6771
▁Orchard	-6772
▁organized	-6773
SO	-6774
TY	-6775
YLE	-6776
▁Mt	-6777
pose	-6778
▁08879	-6779
▁least	-6780
▁Grande	-6781
▁Too	-6782
▁08736	-6783
▁proud	-6784
▁OUTDOOR	-6785
▁collect	-6786
▁stairway	-6787
▁DESIRABLE	-6788
▁Introducing	-6789
▁Rad	-6790
▁Mast	-6791
▁SINK	-6792
▁BUYER	-6793
▁Exquisite	-6794
▁lakefront	-6795
2.	-6796
ULLY	-6797
▁Lan	-6798
▁LOVE	-6799
▁towards	-6800
atz	-6801
iod	-6802
iest	-6803
▁tren	-6804
▁08619	-6805
▁received	-6806
▁Arch	-6807
▁MANY	-6808
▁07734	-6809
▁kayak	-6810
icensed	-6811
▁softener	-6812
▁materials	-6813
As	-6814
Clos	-6815
ucky	-6816
▁07740	-6817
▁hours	-6818
▁PLENTY	-6819
▁advent	-6820
▁subject	-6821
▁upgrade	-6822
mp	-6823
ixt	-6824
ANS	-6825
tier	-6826
▁update	-6827
▁Magnolia	-6828
▁Convenience	-6829
▁Mer	-6830
▁Line	-6831
▁REAR	-6832
▁vast	-6833
ocated	-6834
▁ATTIC	-6835
▁?	-6836
▁cult	-6837
▁safe	-6838
▁Marie	-6839
▁dinette	-6840
▁display	-6841
oan	-6842
▁sf	-6843
right	-6844
▁0740	-6845
▁Boat	-6846
▁pair	-6847
▁surrounds	-6848
▁COMPLETELY	-6849
Fair	-6850
Large	-6851
▁Hack	-6852
▁CHARM	-6853
▁import	-6854
ron	-6855
▁08021	-6856
▁08085	-6857
▁bridges	-6858
▁Tankless	-6859
▁absolute	-6860
▁Book	-6861
ATURAL	-6862
shelves	-6863
▁Terrace	-6864
vection	-6865
▁HEATED	-6866
alon	-6867
▁SOU	-6868
▁0888	-6869
▁07039	-6870
▁Panels	-6871
▁Cranbury	-6872
▁COUNTERTOPS	-6873
68	-6874
LS	-6875
▁GU	-6876
▁DON	-6877
▁UNDER	-6878
▁walks	-6879
▁listed	-6880
▁Attention	-6881
▁locations	-6882
▁filtration	-6883
▁Lum	-6884
▁Spa	-6885
▁dep	-6886
ature	-6887
▁class	-6888
vertine	-6889
▁retire	-6890
iligence	-6891
▁Partial	-6892
min	-6893
▁***	-6894
▁HUD	-6895
▁SEP	-6896
▁bid	-6897
▁Sand	-6898
▁(2024	-6899
▁sauna	-6900
ernacle	-6901
▁Branchburg	-6902
▁Decorative	-6903
▁conservatory	-6904
icn	-6905
oxy	-6906
Full	-6907
▁DET	-6908
▁Day	-6909
ASHER	-6910
ables	-6911
▁wing	-6912
▁Smith	-6913
▁COUNTER	-6914
▁architecture	-6915
▁77	-6916
FAST	-6917
umid	-6918
▁195	-6919
▁08028	-6920
▁Chase	-6921
lock	-6922
▁fre	-6923
ANDED	-6924
asing	-6925
▁08648	-6926
▁courses	-6927
▁featured	-6928
▁Classical	-6929
▁69	-6930
▁PUB	-6931
▁liv	-6932
▁ACRE	-6933
▁join	-6934
▁lies	-6935
ensive	-6936
▁Quality	-6937
▁equally	-6938
▁NATURAL	-6939
▁cosmetic	-6940
▁holidays	-6941
▁Tabernacle	-6942
▁Mountainside	-6943
ifth	-6944
▁Sim	-6945
▁2010	-6946
▁spend	-6947
▁Showing	-6948
aculately	-6949
iff	-6950
▁0855	-6951
AKFAST	-6952
▁Manville	-6953
▁Ridgewood	-6954
▁creativity	-6955
size	-6956
▁ACR	-6957
▁butcher	-6958
▁Garfield	-6959
ideo	-6960
▁Moh	-6961
haust	-6962
▁card	-6963
▁limited	-6964
▁renovate	-6965
En	-6966
AIT	-6967
ruce	-6968
uced	-6969
▁Put	-6970
▁0824	-6971
▁August	-6972
▁(2021),	-6973
▁chapter	-6974
▁Plumsted	-6975
▁220	-6976
▁Carr	-6977
▁08043	-6978
200	-6979
ACT	-6980
lay	-6981
oub	-6982
ican	-6983
▁PRI	-6984
stant	-6985
▁post	-6986
▁spir	-6987
▁different	-6988
▁driveways	-6989
▁staircases	-6990
▁Ash	-6991
itney	-6992
▁GOLF	-6993
▁REST	-6994
▁Soon	-6995
▁site	-6996
▁FRESH	-6997
▁SCHOOLS	-6998
▁Possible	-6999
▁renowned	-7000
high	-7001
step	-7002
▁Katz	-7003
▁SHED	-7004
▁sens	-7005
ateway	-7006
▁breezes	-7007
▁Milltown	-7008
▁Stratford	-7009
▁Association	-7010
aps	-7011
▁$5	-7012
kept	-7013
▁pol	-7014
▁Fish	-7015
▁bird	-7016
enbach	-7017
▁08735	-7018
▁STORY	-7019
▁Spots	-7020
▁guards	-7021
▁Riverbank	-7022
AW	-7023
uing	-7024
▁111	-7025
▁22,	-7026
▁Ken	-7027
▁Deaf	-7028
▁shiplap	-7029
▁BATHROOMS	-7030
▁Kit	-7031
THING	-7032
ifies	-7033
▁TOWN	-7034
▁07036	-7035
▁bridge	-7036
▁Commuter	-7037
▁Katzenbach	-7038
▁BIG	-7039
verly	-7040
▁Fans	-7041
▁Hand	-7042
▁LOVEL	-7043
▁cement	-7044
▁SUNROOM	-7045
▁medical	-7046
nes	-7047
▁Ox	-7048
▁107	-7049
▁131	-7050
▁WAR	-7051
▁koi	-7052
▁cabana	-7053
▁Available	-7054
OST	-7055
stead	-7056
▁EXTRA	-7057
▁yards	-7058
▁exciting	-7059
▁kayaking	-7060
▁Dog	-7061
▁Mov	-7062
ellen	-7063
▁Hook	-7064
▁07871	-7065
▁08210	-7066
▁sheet	-7067
▁LOVELY	-7068
▁Spotswood	-7069
imed	-7070
▁PRO	-7071
▁Ital	-7072
eating	-7073
▁studs	-7074
▁savings	-7075
▁moulding	-7076
▁mechanicals	-7077
05	-7078
▁61	-7079
VENI	-7080
elebr	-7081
▁test	-7082
▁marina	-7083
▁(2020),	-7084
▁Boardwalk	-7085
hall	-7086
clave	-7087
▁08722	-7088
▁MINUT	-7089
▁doesn	-7090
▁keeps	-7091
▁Indoor	-7092
▁triple	-7093
Troy	-7094
elon	-7095
ival	-7096
▁Ste	-7097
CTRIC	-7098
▁dest	-7099
▁Pines	-7100
▁thing	-7101
▁annual	-7102
▁shades	-7103
▁cameras	-7104
▁showcase	-7105
▁Appliance	-7106
▁Lumberton	-7107
▁restaurant	-7108
afe	-7109
dens	-7110
izes	-7111
▁600	-7112
▁wiring	-7113
▁Dunellen	-7114
▁EXPANDED	-7115
▁blending	-7116
ten	-7117
urb	-7118
▁64	-7119
eath	-7120
zero	-7121
▁Gem	-7122
epend	-7123
month	-7124
▁paid	-7125
▁essential	-7126
,000	-7127
▁sol	-7128
▁fits	-7129
▁negot	-7130
▁period	-7131
▁diligence	-7132
74	-7133
▁deal	-7134
▁07901	-7135
▁Spruce	-7136
gy	-7137
IZE	-7138
mudroom	-7139
▁Resort	-7140
▁REMODEL	-7141
▁controlled	-7142
ANTS	-7143
IDGE	-7144
umin	-7145
▁Gym	-7146
HOUSE	-7147
▁07067	-7148
▁PAINTED	-7149
▁transferable	-7150
91	-7151
LIC	-7152
ORS	-7153
ony	-7154
yrs	-7155
▁73	-7156
CEPT	-7157
insp	-7158
▁800	-7159
▁Mah	-7160
▁did	-7161
▁Kinn	-7162
▁RARE	-7163
▁True	-7164
▁seats	-7165
▁extras	-7166
▁refreshing	-7167
ital	-7168
▁MAR	-7169
▁DOWN	-7170
▁Tour	-7171
ayette	-7172
▁Plank	-7173
▁boats	-7174
▁malls	-7175
▁biking	-7176
▁mostly	-7177
▁Row	-7178
▁food	-7179
▁08361	-7180
▁Package	-7181
▁permits	-7182
▁remodel	-7183
▁Refinished	-7184
half	-7185
▁$1,	-7186
▁SPR	-7187
▁Mass	-7188
▁able	-7189
▁Stock	-7190
▁SEPTIC	-7191
▁National	-7192
▁sleeping	-7193
▁Surrounded	-7194
▁10'	-7195
▁cher	-7196
▁Resid	-7197
▁running	-7198
▁Designer	-7199
▁bookshelves	-7200
▁accommodates	-7201
04	-7202
icap	-7203
▁Wen	-7204
▁proc	-7205
closet	-7206
▁worth	-7207
▁safety	-7208
▁Screened	-7209
▁wildlife	-7210
▁OVERL	-7211
▁frame	-7212
▁appear	-7213
▁CONVENI	-7214
▁showers	-7215
BO	-7216
uit	-7217
onah	-7218
▁Sewer	-7219
▁Lincroft	-7220
▁Outdoors	-7221
ecut	-7222
▁106	-7223
▁handy	-7224
▁Contact	-7225
LASH	-7226
▁101	-7227
▁Byr	-7228
ENTLY	-7229
▁Less	-7230
▁picn	-7231
▁compliment	-7232
Be	-7233
unit	-7234
velt	-7235
▁ant	-7236
bench	-7237
▁ALSO	-7238
▁Load	-7239
▁FLOOD	-7240
entiful	-7241
▁repair	-7242
▁Electrical	-7243
aines	-7244
▁Cove	-7245
▁drop	-7246
▁hers	-7247
Ground	-7248
▁veget	-7249
sitting	-7250
▁Hallway	-7251
▁MINUTES	-7252
▁Wenonah	-7253
▁Sprawling	-7254
▁Staircase	-7255
▁hospitals	-7256
▁subdivision	-7257
Great	-7258
▁Within	-7259
▁expect	-7260
▁mornings	-7261
▁opposite	-7262
▁103	-7263
▁112	-7264
ecess	-7265
▁Cook	-7266
▁housing	-7267
▁SHOWINGS	-7268
iday	-7269
▁104	-7270
▁Koh	-7271
▁MAJ	-7272
ESDAY	-7273
IGHTS	-7274
verse	-7275
▁07076	-7276
▁08520	-7277
▁Pitts	-7278
▁Still	-7279
▁offices	-7280
▁Craftsman	-7281
De	-7282
occup	-7283
double	-7284
▁07080	-7285
▁08638	-7286
▁08861	-7287
▁BEING	-7288
▁reason	-7289
▁Cottage	-7290
▁hookups	-7291
▁Wy	-7292
▁117	-7293
▁199	-7294
▁EAS	-7295
▁esp	-7296
▁placed	-7297
▁thriving	-7298
▁Plainsboro	-7299
▁72	-7300
▁TEN	-7301
▁Hunt	-7302
▁(2015	-7303
▁07002	-7304
▁2016.	-7305
▁THREE	-7306
▁spots	-7307
▁Appeal	-7308
▁CARPET	-7309
▁lovers	-7310
▁Motivated	-7311
na	-7312
uss	-7313
▁wont	-7314
▁07920	-7315
fireplace	-7316
▁Columbus	-7317
▁Kinnelon	-7318
▁BREAKFAST	-7319
uce	-7320
UCED	-7321
path	-7322
▁0745	-7323
▁Geor	-7324
▁Units	-7325
▁Value	-7326
▁VAULTED	-7327
study	-7328
▁130,	-7329
▁HWBB	-7330
▁PRIC	-7331
▁bank	-7332
▁integ	-7333
▁maintain	-7334
▁REMODELED	-7335
▁Eag	-7336
▁Use	-7337
ECTION	-7338
▁ACCESS	-7339
▁terrace	-7340
▁NICE	-7341
▁conc	-7342
▁info	-7343
ertime	-7344
▁08260	-7345
▁08902	-7346
▁stands	-7347
▁(2022),	-7348
▁ELECTRIC	-7349
▁possibly	-7350
▁Expressway	-7351
▁certificate	-7352
??	-7353
▁63	-7354
▁66	-7355
▁Ii	-7356
▁BUS	-7357
▁pant	-7358
▁tier	-7359
IGHBOR	-7360
▁Gazebo	-7361
afayette	-7362
▁Alexand	-7363
▁asphalt	-7364
▁Moldings	-7365
▁enclosure	-7366
▁wraparound	-7367
Sp	-7368
no	-7369
▁80,	-7370
▁lvl	-7371
▁Stop	-7372
itness	-7373
▁urban	-7374
▁PUBLIC	-7375
▁preferred	-7376
);	-7377
▁62	-7378
▁MLS	-7379
▁Even	-7380
▁mirror	-7381
▁Winding	-7382
▁GL	-7383
▁(200	-7384
▁wants	-7385
▁SIDING	-7386
▁remain	-7387
▁NEIGHBOR	-7388
ats	-7389
▁Won	-7390
osaic	-7391
▁2016,	-7392
▁BLOCK	-7393
▁Overlooking	-7394
ned	-7395
▁3000	-7396
▁Deep	-7397
▁Kohler	-7398
oosevelt	-7399
All	-7400
/2.5	-7401
▁Rte	-7402
erview	-7403
▁NEWLY	-7404
ishings	-7405
▁Oxford	-7406
▁celebr	-7407
▁Lakeland	-7408
▁conversion	-7409
▁Entertainment	-7410
Don	-7411
REEN	-7412
occi	-7413
ATHED	-7414
atement	-7415
ificant	-7416
▁Mohawk	-7417
▁strong	-7418
schedule	-7419
▁Soaking	-7420
▁consider	-7421
▁fiberglass	-7422
OSS	-7423
▁78,	-7424
▁Fixt	-7425
▁docu	-7426
▁gate	-7427
▁Bedrm	-7428
▁Grant	-7429
▁CORNER	-7430
▁Tranqu	-7431
▁demand	-7432
▁Awesome	-7433
UX	-7434
hill	-7435
AKING	-7436
▁Cres	-7437
▁Haines	-7438
▁REDUCED	-7439
▁Roosevelt	-7440
▁sidewalks	-7441
ATES	-7442
Step	-7443
VACY	-7444
▁114	-7445
▁LOTS	-7446
▁clear	-7447
▁fifth	-7448
▁BRIGHT	-7449
▁Italian	-7450
▁Chesterfield	-7451
oir	-7452
ooth	-7453
▁Sinks	-7454
▁(2018),	-7455
▁however	-7456
▁beginning	-7457
ude	-7458
▁div	-7459
▁2015.	-7460
▁WARRAN	-7461
▁Finally	-7462
▁Extended	-7463
▁standard	-7464
oam	-7465
▁lg	-7466
▁LIF	-7467
▁Disc	-7468
▁Buena	-7469
▁steal	-7470
▁Lights	-7471
▁obtain	-7472
▁cleaning	-7473
▁preparing	-7474
ANK	-7475
▁88	-7476
ingles	-7477
▁Friday	-7478
▁corian	-7479
ATHEDRAL	-7480
▁wrought	-7481
ople	-7482
▁dam	-7483
▁Cute	-7484
▁span	-7485
▁fills	-7486
▁necess	-7487
▁highway	-7488
breakfast	-7489
aser	-7490
▁118	-7491
▁SOL	-7492
Suite	-7493
banon	-7494
lewood	-7495
▁treed	-7496
▁Avalon	-7497
▁licensed	-7498
ara	-7499
▁Due	-7500
▁IMM	-7501
▁HERE	-7502
▁Serv	-7503
▁anch	-7504
imited	-7505
▁(2019),	-7506
▁CABINET	-7507
▁UPGRADES	-7508
▁belongings	-7509
/21	-7510
Law	-7511
▁4/5	-7512
▁NOW	-7513
▁Cool	-7514
erling	-7515
compass	-7516
redibly	-7517
▁Courts	-7518
▁GROUND	-7519
▁warmer	-7520
▁Lebanon	-7521
▁charger	-7522
▁putting	-7523
▁Exercise	-7524
▁plentiful	-7525
azz	-7526
▁(5	-7527
▁SEPAR	-7528
▁shape	-7529
▁taste	-7530
▁prepar	-7531
▁members	-7532
▁impression	-7533
hoe	-7534
▁Az	-7535
▁113	-7536
▁Flr	-7537
▁Lay	-7538
▁PAN	-7539
panel	-7540
▁pays	-7541
▁GUEST	-7542
▁Gunite	-7543
▁PRIVACY	-7544
▁serving	-7545
▁separated	-7546
▁requirements	-7547
my	-7548
▁Been	-7549
▁Into	-7550
facing	-7551
▁width	-7552
umidifier	-7553
▁Sterling	-7554
▁Architect	-7555
▁(4	-7556
▁1000	-7557
▁Study	-7558
''.	-7559
BER	-7560
site	-7561
▁SEAS	-7562
nesday	-7563
▁08618	-7564
▁records	-7565
▁EV	-7566
HOOD	-7567
ells	-7568
▁Fam	-7569
▁vill	-7570
▁Abund	-7571
▁Replaced	-7572
neys	-7573
inner	-7574
▁Wait	-7575
▁subm	-7576
▁famous	-7577
▁ticket	-7578
exington	-7579
hardwood	-7580
▁bringing	-7581
▁cheerful	-7582
SAC	-7583
▁102	-7584
▁119	-7585
▁Buy	-7586
▁Month	-7587
▁belie	-7588
▁epoxy	-7589
▁diamond	-7590
▁keeping	-7591
▁playing	-7592
▁farmland	-7593
▁202	-7594
▁Dan	-7595
print	-7596
▁FRENCH	-7597
▁program	-7598
▁Including	-7599
▁complimented	-7600
MET	-7601
oka	-7602
mark	-7603
pack	-7604
▁joy	-7605
▁Harding	-7606
currently	-7607
efficient	-7608
vac	-7609
▁NEED	-7610
▁Runn	-7611
▁trash	-7612
▁Gather	-7613
▁grocery	-7614
▁WARRANTY	-7615
▁extension	-7616
▁harmonious	-7617
▁SUM	-7618
▁beam	-7619
URNING	-7620
▁equity	-7621
▁durable	-7622
▁Pittsgrove	-7623
Br	-7624
AUR	-7625
▁Cov	-7626
▁Log	-7627
▁Walkout	-7628
▁thermal	-7629
▁straight	-7630
▁interiors	-7631
▁hw	-7632
iders	-7633
▁08232	-7634
▁Lanoka	-7635
▁covers	-7636
▁barbecue	-7637
▁Wednesday	-7638
▁breezeway	-7639
▁municipal	-7640
IOR	-7641
CEAN	-7642
Dryer	-7643
▁07016	-7644
▁MAJOR	-7645
▁March	-7646
▁though	-7647
▁airport	-7648
▁frontage	-7649
▁Lexington	-7650
1/2	-7651
ists	-7652
There	-7653
approx	-7654
▁savvy	-7655
▁galley	-7656
▁Current	-7657
▁flowers	-7658
▁Lafayette	-7659
▁carefully	-7660
Op	-7661
▁)	-7662
▁Cr	-7663
▁Whit	-7664
▁2023,	-7665
▁legal	-7666
▁skyline	-7667
gu	-7668
▁WB	-7669
▁radi	-7670
▁08077	-7671
▁stucco	-7672
▁company	-7673
▁INCLUDED	-7674
▁mountain	-7675
▁Ownership	-7676
-2	-7677
sk	-7678
▁79	-7679
▁non	-7680
▁INTO	-7681
▁Note	-7682
ountain	-7683
▁cherished	-7684
▁encompass	-7685
▁Underground	-7686
.2	-7687
▁EST	-7688
▁sod	-7689
▁Life	-7690
▁neat	-7691
▁08037	-7692
▁Reach	-7693
▁Marina	-7694
▁shrubs	-7695
▁Ensuite	-7696
▁overall	-7697
▁SEPARATE	-7698
▁majestic	-7699
SU	-7700
fol	-7701
str	-7702
▁ACRES	-7703
▁stars	-7704
▁Ascend	-7705
▁poured	-7706
▁INCLUDE	-7707
▁durability	-7708
CC	-7709
OINT	-7710
▁SET	-7711
▁kit	-7712
orton	-7713
▁Kear	-7714
▁Gateway	-7715
▁preparation	-7716
CLOS	-7717
▁TIL	-7718
▁OCEAN	-7719
▁OWNER	-7720
▁catch	-7721
▁MULTIPLE	-7722
▁Woodstown	-7723
▁NEIGHBORHOOD	-7724
▁entertainers	-7725
▁Deer	-7726
▁Dock	-7727
▁avail	-7728
▁rails	-7729
▁drains	-7730
▁meters	-7731
▁cleaned	-7732
▁Oakhurst	-7733
aza	-7734
▁116	-7735
ellet	-7736
enity	-7737
minute	-7738
tiered	-7739
▁people	-7740
▁Dramatic	-7741
▁Stockton	-7742
Den	-7743
▁ed	-7744
▁900	-7745
▁NJT	-7746
▁bit	-7747
▁Leon	-7748
▁Salt	-7749
idered	-7750
▁07065	-7751
▁bloom	-7752
▁PRICED	-7753
▁(2023),	-7754
▁Hickory	-7755
▁Lg	-7756
▁Apr	-7757
▁PLE	-7758
gress	-7759
▁sand	-7760
▁homebu	-7761
........	-7762
▁fixture	-7763
▁propane	-7764
▁Crossing	-7765
▁substant	-7766
▁connection	-7767
ULY	-7768
▁5/	-7769
▁pm	-7770
▁076	-7771
formal	-7772
▁08401	-7773
▁08690	-7774
▁Purch	-7775
▁cream	-7776
▁thanks	-7777
▁exhaust	-7778
omen	-7779
vard	-7780
▁Apt	-7781
▁BUT	-7782
emede	-7783
scape	-7784
▁2008	-7785
lusion	-7786
▁THERE	-7787
▁amazed	-7788
▁RESTAUR	-7789
▁Runnemede	-7790
▁76	-7791
▁Sch	-7792
ister	-7793
oning	-7794
▁2025	-7795
▁USDA	-7796
▁busy	-7797
▁tilt	-7798
▁07860	-7799
▁2015,	-7800
▁Years	-7801
▁lucky	-7802
▁begins	-7803
▁trendy	-7804
▁Broadway	-7805
▁flowering	-7806
▁$1	-7807
▁Spr	-7808
newer	-7809
▁07869	-7810
▁Added	-7811
▁Fanwood	-7812
▁Whirlpool	-7813
▁occasions	-7814
▁significant	-7815
ockt	-7816
▁Wet	-7817
▁Surf	-7818
▁07060	-7819
▁opened	-7820
▁Appoint	-7821
▁downsizing	-7822
▁Bet	-7823
thora	-7824
▁08062	-7825
▁approved	-7826
▁outbuild	-7827
7,	-7828
▁Win	-7829
OURMET	-7830
▁Beauty	-7831
▁Shores	-7832
▁bedrms	-7833
▁bustle	-7834
Bu	-7835
sun	-7836
▁..	-7837
kill	-7838
itude	-7839
▁form	-7840
▁self	-7841
▁tiling	-7842
▁Paulsboro	-7843
▁obtaining	-7844
▁SK	-7845
open	-7846
▁bth	-7847
▁soo	-7848
ibule	-7849
▁bsmt	-7850
▁Nature	-7851
▁closed	-7852
▁pantries	-7853
uel	-7854
bonus	-7855
▁ways	-7856
▁Fence	-7857
▁convey	-7858
▁couple	-7859
Daughter	-7860
▁Leading	-7861
▁memorable	-7862
IET	-7863
ift	-7864
glass	-7865
▁0785	-7866
▁case	-7867
▁claw	-7868
▁April	-7869
▁freezer	-7870
▁vehicle	-7871
obstructed	-7872
fy	-7873
▁sn	-7874
just	-7875
▁based	-7876
▁leaded	-7877
▁arrange	-7878
▁theatre	-7879
▁plethora	-7880
ke	-7881
wide	-7882
▁why	-7883
▁Bill	-7884
▁bout	-7885
▁heads	-7886
▁often	-7887
private	-7888
▁cheery	-7889
▁BEAUTIFULLY	-7890
VC	-7891
iera	-7892
▁cor	-7893
porch	-7894
ually	-7895
▁Exit	-7896
▁Toll	-7897
cabinet	-7898
▁credit	-7899
▁bathtub	-7900
▁Allentown	-7901
▁structure	-7902
▁considered	-7903
▁wonderfully	-7904
1-	-7905
eld	-7906
▁EP	-7907
elin	-7908
▁buff	-7909
ainted	-7910
ecially	-7911
▁Shaker	-7912
▁Midtown	-7913
▁Plumbing	-7914
▁100%	-7915
▁08034	-7916
▁Byram	-7917
▁bikes	-7918
estibule	-7919
▁GOURMET	-7920
▁Riviera	-7921
▁parklike	-7922
▁furnishings	-7923
gl	-7924
MER	-7925
ges	-7926
ivid	-7927
▁42"	-7928
Enjoy	-7929
edest	-7930
lands	-7931
▁0709	-7932
▁Cond	-7933
ingham	-7934
esigned	-7935
▁verify	-7936
Con	-7937
▁Wee	-7938
▁king	-7939
▁PANEL	-7940
▁cater	-7941
▁mosaic	-7942
ortioned	-7943
▁beneath	-7944
▁accompan	-7945
▁projects	-7946
▁appealing	-7947
WAYS	-7948
ooper	-7949
▁Wana	-7950
SPLASH	-7951
▁07928	-7952
▁Chair	-7953
▁Could	-7954
▁Layout	-7955
▁invest	-7956
▁PARKING	-7957
▁Springs	-7958
▁definitely	-7959
▁87	-7960
▁HS	-7961
▁LUX	-7962
▁Oil	-7963
▁Lear	-7964
▁Lock	-7965
▁07013	-7966
▁08203	-7967
▁Somer	-7968
▁Stairs	-7969
▁shaped	-7970
▁Wanaque	-7971
▁streaming	-7972
111	-7973
yck	-7974
▁700	-7975
▁TOT	-7976
▁Girt	-7977
▁TRANSP	-7978
▁hustle	-7979
▁SLIDERS	-7980
▁builders	-7981
▁Brookdale	-7982
▁producing	-7983
▁71	-7984
aper	-7985
▁Trim	-7986
▁type	-7987
ashore	-7988
enaiss	-7989
▁08534	-7990
▁OTHER	-7991
ustling	-7992
▁paddle	-7993
▁Builders	-7994
▁5,	-7995
▁EASY	-7996
▁SIZE	-7997
▁gall	-7998
losure	-7999
▁Agent	-8000
ABULOUS	-8001
▁Houses	-8002
▁Iselin	-8003
▁sounds	-8004
▁selling	-8005
▁workbench	-8006
▁convection	-8007
▁Outstanding	-8008
/22	-8009
ickle	-8010
▁Tray	-8011
▁07722	-8012
▁Bocce	-8013
▁perfor	-8014
▁relaxed	-8015
▁Learning	-8016
▁Somerdale	-8017
ORD	-8018
reg	-8019
acht	-8020
▁PATH	-8021
TERIOR	-8022
▁08070	-8023
playroom	-8024
enaissance	-8025
▁ic	-8026
poss	-8027
azine	-8028
▁Care	-8029
▁Elev	-8030
▁HALL	-8031
STAIRS	-8032
▁QUIET	-8033
▁STONE	-8034
▁using	-8035
▁Breath	-8036
▁grassy	-8037
inspired	-8038
ender	-8039
▁WAIT	-8040
▁Blair	-8041
▁Across	-8042
▁process	-8043
▁CATHEDRAL	-8044
▁TRANSPORT	-8045
▁Hainesport	-8046
▁Cas	-8047
folio	-8048
▁FOUR	-8049
▁Feel	-8050
▁08406	-8051
▁COMMUT	-8052
▁egress	-8053
▁filler	-8054
▁American	-8055
▁handicap	-8056
EMA	-8057
▁unl	-8058
ARTER	-8059
rised	-8060
▁2006	-8061
▁Twin	-8062
▁gold	-8063
ptuous	-8064
Upstairs	-8065
▁retaining	-8066
▁EVERYTHING	-8067
PS	-8068
▁3-4	-8069
▁Dev	-8070
▁LIKE	-8071
▁invite	-8072
▁starts	-8073
▁promises	-8074
▁Barrington	-8075
▁modernized	-8076
bq	-8077
nock	-8078
rock	-8079
▁205	-8080
▁Lop	-8081
▁rate	-8082
▁roll	-8083
▁08840	-8084
▁drink	-8085
▁happy	-8086
▁means	-8087
vaulted	-8088
▁floods	-8089
▁stacked	-8090
▁pleasant	-8091
▁household	-8092
▁LVP	-8093
▁adm	-8094
▁doub	-8095
▁rural	-8096
▁develop	-8097
▁accompanied	-8098
IE	-8099
ALF	-8100
apo	-8101
rop	-8102
▁07079	-8103
▁cockt	-8104
▁superb	-8105
▁Tenants	-8106
▁portion	-8107
▁village	-8108
▁CABINETRY	-8109
▁footprint	-8110
▁accommodating	-8111
▁TRANSPORTATION	-8112
owa	-8113
▁DEN	-8114
Close	-8115
ellow	-8116
▁Styl	-8117
▁prof	-8118
▁inlay	-8119
▁smoke	-8120
▁submit	-8121
quannock	-8122
▁Fairview	-8123
▁Lopatcong	-8124
▁portfolio	-8125
▁Farmingdale	-8126
can	-8127
▁208	-8128
▁46,	-8129
Story	-8130
itate	-8131
▁TOPS	-8132
▁Along	-8133
▁COVER	-8134
▁Mature	-8135
▁Thought	-8136
▁FABULOUS	-8137
▁delivers	-8138
▁requires	-8139
▁BACKSPLASH	-8140
▁3/	-8141
▁REL	-8142
▁07866	-8143
▁Almost	-8144
▁models	-8145
--------	-8146
Woolwich	-8147
▁Farmhouse	-8148
▁Playground	-8149
▁OVERLOOKING	-8150
eur	-8151
▁au	-8152
▁emb	-8153
▁INST	-8154
▁reve	-8155
umbled	-8156
▁Ramapo	-8157
▁shaded	-8158
▁occupant	-8159
▁2011	-8160
▁Saint	-8161
▁Thurs	-8162
▁think	-8163
▁copper	-8164
▁condens	-8165
▁storing	-8166
▁Brookside	-8167
▁Pequannock	-8168
▁Westampton	-8169
!.	-8170
erts	-8171
▁Eur	-8172
▁slip	-8173
ilevel	-8174
▁(2014	-8175
▁08734	-8176
▁county	-8177
▁plants	-8178
▁LISTING	-8179
▁winding	-8180
▁Bernardsville	-8181
TIL	-8182
▁74	-8183
▁BD	-8184
▁12'	-8185
▁Any	-8186
▁tem	-8187
▁FEMA	-8188
▁Sham	-8189
▁07059	-8190
▁LUXUR	-8191
▁bustling	-8192
▁Greenwood	-8193
ald	-8194
▁TU	-8195
▁OLD	-8196
▁pad	-8197
▁valu	-8198
▁Cream	-8199
▁STYLE	-8200
▁Andover	-8201
IFIC	-8202
IONAL	-8203
▁Ball	-8204
▁Conc	-8205
▁HALF	-8206
▁List	-8207
▁Honey	-8208
▁FEATUR	-8209
▁Kearny	-8210
▁parcel	-8211
▁shadow	-8212
▁Gutters	-8213
▁prepare	-8214
▁Waterford	-8215
▁Renaissance	-8216
izz	-8217
▁Leg	-8218
▁Mart	-8219
▁Zero	-8220
▁Towne	-8221
istance	-8222
▁Beverly	-8223
▁Shamong	-8224
▁individ	-8225
▁accepted	-8226
▁vegetable	-8227
▁Thermostat	-8228
▁Prestigious	-8229
▁Conditioning	-8230
▁6/	-8231
▁AR	-8232
▁Oct	-8233
verton	-8234
▁Moving	-8235
▁Utilities	-8236
▁Westville	-8237
sf	-8238
Cent	-8239
▁Appl	-8240
▁SIDE	-8241
▁fest	-8242
through	-8243
▁shingles	-8244
▁palladium	-8245
▁treatment	-8246
aneck	-8247
▁Beds	-8248
▁Pump	-8249
▁07760	-8250
▁08872	-8251
▁QUICK	-8252
ecutive	-8253
▁Sunken	-8254
▁Wooded	-8255
▁change	-8256
▁Baseboard	-8257
him	-8258
▁4.	-8259
wold	-8260
▁075	-8261
▁Art	-8262
craft	-8263
▁Game	-8264
▁08109	-8265
▁youll	-8266
stopper	-8267
▁Teaneck	-8268
▁Homepath	-8269
▁exposure	-8270
▁elevation	-8271
▁negotiable	-8272
▁unobstructed	-8273
▁waterproofed	-8274
IUM	-8275
mat	-8276
▁89	-8277
SHIP	-8278
sink	-8279
▁Far	-8280
▁Vis	-8281
ANTRY	-8282
▁WORK	-8283
▁slice	-8284
century	-8285
▁paneled	-8286
ibilities	-8287
▁soothing	-8288
▁appointments	-8289
table	-8290
▁Allen	-8291
▁Walls	-8292
▁Afford	-8293
▁Wilson	-8294
▁stools	-8295
▁English	-8296
▁Massive	-8297
▁finding	-8298
▁especially	-8299
▁transition	-8300
SUITE	-8301
▁FREE	-8302
▁Wyck	-8303
Custom	-8304
▁picnic	-8305
▁Belford	-8306
▁appreci	-8307
▁certain	-8308
▁renting	-8309
▁Comfortable	-8310
▁Bloomingdale	-8311
▁tv	-8312
bble	-8313
▁Belg	-8314
▁Girl	-8315
▁Stay	-8316
boards	-8317
▁stops	-8318
▁spiral	-8319
▁Crystal	-8320
▁warrant	-8321
▁Evergreen	-8322
▁regarding	-8323
▁vestibule	-8324
FTER	-8325
OUND	-8326
▁210	-8327
▁boo	-8328
▁206,	-8329
▁BOTH	-8330
▁Rent	-8331
▁bump	-8332
▁gets	-8333
▁pole	-8334
▁07008	-8335
▁08002	-8336
▁ranked	-8337
▁payment	-8338
ups	-8339
▁(2)	-8340
▁280	-8341
▁bbq	-8342
▁Hardie	-8343
▁Lagoon	-8344
▁Chathams	-8345
▁SW	-8346
Wave	-8347
myra	-8348
▁NOR	-8349
▁They	-8350
uminum	-8351
▁metal	-8352
Located	-8353
▁butlers	-8354
▁desires	-8355
▁retirement	-8356
yd	-8357
iev	-8358
▁VAL	-8359
▁Foot	-8360
▁laid	-8361
▁08402	-8362
▁(2017),	-8363
▁Venture	-8364
▁adjoins	-8365
▁leaving	-8366
▁purchased	-8367
QUE	-8368
▁GEM	-8369
ONDERF	-8370
ashers	-8371
▁07111	-8372
▁07305	-8373
▁Beech	-8374
▁cable	-8375
▁graced	-8376
▁pedest	-8377
▁Leonard	-8378
▁warming	-8379
▁substantial	-8380
▁immaculately	-8381
▁98	-8382
anco	-8383
book	-8384
▁121	-8385
▁DRY	-8386
▁Nook	-8387
▁amid	-8388
▁08751	-8389
▁Girls	-8390
▁Total	-8391
▁Where	-8392
▁confir	-8393
▁MOLDING	-8394
▁contractor	-8395
▁decorating	-8396
4,	-8397
▁PVC	-8398
▁Sac	-8399
actor	-8400
wired	-8401
▁$100	-8402
▁0821	-8403
▁DIST	-8404
▁Soft	-8405
▁VENT	-8406
▁Pergo	-8407
▁apart	-8408
▁sight	-8409
▁adventures	-8410
mo	-8411
rice	-8412
▁160	-8413
othes	-8414
ution	-8415
▁Five	-8416
▁fing	-8417
▁jack	-8418
▁08876	-8419
▁sipping	-8420
▁painting	-8421
ishwashers	-8422
▁thermostats	-8423
FIN	-8424
aire	-8425
▁UTIL	-8426
▁twin	-8427
▁07110	-8428
▁Unwind	-8429
▁FRESHLY	-8430
▁Addition	-8431
▁Brothers	-8432
▁Rounding	-8433
▁aluminum	-8434
▁Commercial	-8435
▁incredibly	-8436
▁hardscaping	-8437
ICT	-8438
▁99	-8439
▁SUB	-8440
OTHER	-8441
ridge	-8442
▁APPR	-8443
▁Pier	-8444
▁oper	-8445
laimed	-8446
shaped	-8447
▁07882	-8448
▁CROWN	-8449
▁knock	-8450
▁simpl	-8451
▁retail	-8452
▁describes	-8453
7.	-8454
▁.5	-8455
▁127	-8456
▁Min	-8457
▁VAC	-8458
▁Airy	-8459
▁2024.	-8460
▁DESIG	-8461
▁SHORT	-8462
▁YEARS	-8463
▁proof	-8464
▁PANTRY	-8465
▁Worship	-8466
RM	-8467
aked	-8468
lder	-8469
term	-8470
▁pav	-8471
▁sal	-8472
night	-8473
▁Flrs	-8474
▁LOOK	-8475
▁tail	-8476
▁Plaza	-8477
▁SHORE	-8478
▁might	-8479
Welcome	-8480
▁SUMMER	-8481
▁Stylish	-8482
▁guaranteed	-8483
▁la	-8484
from	-8485
gypt	-8486
▁Dav	-8487
▁Pro	-8488
▁isn	-8489
etted	-8490
▁Host	-8491
▁Egypt	-8492
▁Fitness	-8493
▁reverse	-8494
▁billiard	-8495
you	-8496
ilar	-8497
uter	-8498
▁enc	-8499
-295,	-8500
alnut	-8501
▁3.5-	-8502
▁PRIM	-8503
▁dine	-8504
▁former	-8505
Hardwood	-8506
▁rooftop	-8507
▁Generously	-8508
▁perennials	-8509
***	-8510
▁('	-8511
▁Hwy	-8512
▁Jan	-8513
▁pet	-8514
▁Gibb	-8515
ypress	-8516
▁Cliff	-8517
▁(2019)	-8518
▁Totowa	-8519
▁Thursday	-8520
▁Lindenwold	-8521
▁216	-8522
▁IND	-8523
▁win	-8524
eliev	-8525
▁Iron	-8526
▁08859	-8527
▁Shark	-8528
▁timber	-8529
▁WONDERF	-8530
▁enclave	-8531
▁inspired	-8532
▁sizeable	-8533
▁turnpike	-8534
▁INCLUDING	-8535
▁necessary	-8536
▁travertine	-8537
Wh	-8538
▁97	-8539
ARTZ	-8540
iele	-8541
▁322	-8542
▁Koi	-8543
▁RENT	-8544
▁Want	-8545
▁08882	-8546
▁Shops	-8547
▁Dogwood	-8548
▁DETACHED	-8549
▁Swimming	-8550
▁elegantly	-8551
▁9/	-8552
qual	-8553
▁Roy	-8554
▁Food	-8555
plenty	-8556
urpose	-8557
▁trips	-8558
▁complex	-8559
▁conting	-8560
▁qualify	-8561
▁CHARMING	-8562
▁Silverton	-8563
CEP	-8564
▁3+	-8565
cont	-8566
iers	-8567
▁LOFT	-8568
▁MOST	-8569
though	-8570
▁08033	-8571
▁COMING	-8572
▁BEACHES	-8573
▁Stately	-8574
Rm	-8575
:59	-8576
▁83	-8577
▁Pet	-8578
▁hub	-8579
▁TONS	-8580
Master	-8581
izable	-8582
▁08052	-8583
▁STALL	-8584
▁Approx	-8585
▁(2016),	-8586
▁Morning	-8587
▁charmer	-8588
▁changing	-8589
▁RESTAURANTS	-8590
Ad	-8591
▁Swim	-8592
▁vibe	-8593
▁BOAST	-8594
▁Blocks	-8595
▁CLOSING	-8596
▁Wyckoff	-8597
oximately	-8598
▁nightlife	-8599
▁summertime	-8600
▁LL	-8601
▁122	-8602
▁135	-8603
which	-8604
CEPTED	-8605
Living	-8606
fenced	-8607
thouse	-8608
▁Local	-8609
▁Sylvan	-8610
▁WASHER	-8611
ettstown	-8612
▁PRIMARY	-8613
▁expands	-8614
▁Blairstown	-8615
NIS	-8616
▁SC	-8617
▁PART	-8618
ressed	-8619
▁2014.	-8620
▁Serene	-8621
▁liking	-8622
▁COUNTRY	-8623
▁Medical	-8624
▁spending	-8625
▁Buckingham	-8626
iki	-8627
▁AV	-8628
INKL	-8629
esla	-8630
▁Dou	-8631
▁Ride	-8632
▁TIME	-8633
▁Wine	-8634
▁loan	-8635
▁07840	-8636
▁Briar	-8637
▁creek	-8638
▁eligible	-8639
efficiency	-8640
▁centerpiece	-8641
▁maintaining	-8642
▁Hackettstown	-8643
TS	-8644
Gas	-8645
oto	-8646
▁84	-8647
▁240	-8648
▁INS	-8649
▁age	-8650
▁IMPR	-8651
▁Rowan	-8652
▁STOVE	-8653
▁VALUE	-8654
▁Boiler	-8655
▁Pointe	-8656
▁Saddle	-8657
▁walnut	-8658
▁Palmyra	-8659
▁ATTACHED	-8660
▁CLUBHOUSE	-8661
▁redesigned	-8662
▁distinctive	-8663
Rec	-8664
PLAC	-8665
▁128	-8666
opean	-8667
▁Comp	-8668
▁HILL	-8669
▁Hart	-8670
▁lets	-8671
houses	-8672
▁07042	-8673
▁Apple	-8674
▁Canal	-8675
▁clothes	-8676
▁Peaceful	-8677
▁doorways	-8678
▁WATERFRONT	-8679
▁PREM	-8680
▁SOLAR	-8681
Granite	-8682
▁PLEASE	-8683
▁Tenant	-8684
▁COVERED	-8685
▁INSTALL	-8686
▁Sunrise	-8687
▁maximum	-8688
▁ACCEPTED	-8689
)!	-8690
For	-8691
UAL	-8692
▁81	-8693
iven	-8694
mere	-8695
▁Bow	-8696
▁mod	-8697
▁(2013	-8698
▁08533	-8699
▁08846	-8700
▁BUILD	-8701
▁Paved	-8702
▁Plant	-8703
▁chest	-8704
▁flair	-8705
▁match	-8706
▁pumps	-8707
▁pellet	-8708
▁wealth	-8709
▁Indulge	-8710
▁Financing	-8711
▁occupants	-8712
▁LANDSCAPED	-8713
▁Breathtaking	-8714
Air	-8715
ORM	-8716
itle	-8717
▁250	-8718
▁nor	-8719
▁GLASS	-8720
▁RELAX	-8721
▁sandy	-8722
▁Balcony	-8723
▁polished	-8724
SS	-8725
GHT	-8726
ateg	-8727
sqft	-8728
▁CUR	-8729
▁FLR	-8730
utted	-8731
yston	-8732
▁edge	-8733
▁07461	-8734
▁08691	-8735
▁Miele	-8736
▁rounds	-8737
▁perform	-8738
Beautiful	-8739
▁Gracious	-8740
▁paneling	-8741
▁Lifestyle	-8742
▁sumptuous	-8743
▁Franklinville	-8744
▁Possibilities	-8745
tt	-8746
-19	-8747
901	-8748
▁2+	-8749
▁8/	-8750
ient	-8751
▁Coff	-8752
▁Stan	-8753
▁west	-8754
▁08812	-8755
▁TRULY	-8756
avesink	-8757
▁Unpack	-8758
▁surely	-8759
▁princess	-8760
▁countless	-8761
▁showstopper	-8762
-1	-8763
urf	-8764
URRY	-8765
▁Kenn	-8766
▁07716	-8767
▁times	-8768
▁whist	-8769
▁(2021)	-8770
▁Builder	-8771
▁Paradise	-8772
▁Fairfield	-8773
VIEW	-8774
ewks	-8775
▁Amp	-8776
▁Ven	-8777
▁SOON	-8778
▁TREX	-8779
▁mark	-8780
▁08901	-8781
▁Rated	-8782
▁Tewks	-8783
esitate	-8784
▁others	-8785
▁Tewksbury	-8786
gle	-8787
▁2012	-8788
▁Wrap	-8789
▁grey	-8790
conies	-8791
graded	-8792
▁lends	-8793
matched	-8794
▁Heading	-8795
▁Mudroom	-8796
▁antique	-8797
▁mailing	-8798
▁anchored	-8799
▁WONDERFUL	-8800
▁Gated	-8801
▁Small	-8802
▁Smoke	-8803
▁WHITE	-8804
▁spare	-8805
▁Simply	-8806
▁Florham	-8807
▁Johnson	-8808
▁smaller	-8809
ventional	-8810
▁doorstep	-8811
▁reliable	-8812
▁virtually	-8813
▁Affordable	-8814
▁dishwashers	-8815
opy	-8816
haps	-8817
ills	-8818
▁Cab	-8819
▁Corn	-8820
▁mint	-8821
▁07095	-8822
▁08824	-8823
▁Leads	-8824
▁Loads	-8825
▁bocci	-8826
▁TENNIS	-8827
▁produc	-8828
▁SPRINKL	-8829
▁faucets	-8830
▁transom	-8831
▁Circular	-8832
▁GENERATOR	-8833
▁Reservoir	-8834
formational	-8835
▁Meticulous	-8836
exp	-8837
sts	-8838
ework	-8839
oring	-8840
▁Chim	-8841
▁Lush	-8842
ACULAR	-8843
▁Cooper	-8844
▁REPLAC	-8845
electric	-8846
▁Soaring	-8847
▁benefit	-8848
▁Navesink	-8849
▁furnaces	-8850
NJ	-8851
kn	-8852
▁$8	-8853
▁AG	-8854
▁WHERE	-8855
▁backup	-8856
workshop	-8857
▁Waiting	-8858
▁thruout	-8859
ECTACULAR	-8860
elievable	-8861
▁European	-8862
▁grandeur	-8863
▁82	-8864
rais	-8865
▁Flex	-8866
aledon	-8867
▁Fords	-8868
▁Insul	-8869
▁NORTH	-8870
ocation	-8871
▁ACTIVE	-8872
▁Escape	-8873
▁LIGHTS	-8874
▁IMMACUL	-8875
▁Selling	-8876
▁ballroom	-8877
▁doorbell	-8878
▁Smithville	-8879
▁overlooked	-8880
-9	-8881
Ex	-8882
▁91	-8883
▁GS	-8884
▁Po	-8885
▁RV	-8886
agon	-8887
▁129	-8888
▁180	-8889
▁207	-8890
▁Beg	-8891
oming	-8892
▁FIND	-8893
▁Rose	-8894
▁(2018)	-8895
▁Haledon	-8896
▁sunrise	-8897
▁conveyed	-8898
▁rehabbed	-8899
▁Impeccably	-8900
intessential	-8901
lawn	-8902
▁198	-8903
▁Dry	-8904
▁Sle	-8905
▁Prof	-8906
▁abode	-8907
▁Winter	-8908
▁created	-8909
▁Princess	-8910
▁fountain	-8911
▁hesitate	-8912
▁condenser	-8913
▁qualified	-8914
▁individual	-8915
PER	-8916
▁8'	-8917
ERRY	-8918
olic	-8919
▁204	-8920
▁Fred	-8921
▁TURN	-8922
▁ends	-8923
▁Breez	-8924
▁stret	-8925
minster	-8926
▁wanted	-8927
▁winner	-8928
▁southern	-8929
▁alongside	-8930
▁Eastampton	-8931
▁warranties	-8932
BL	-8933
__	-8934
bow	-8935
▁SUR	-8936
arton	-8937
▁SOME	-8938
▁mall	-8939
▁star	-8940
▁Grill	-8941
▁maker	-8942
▁QUARTZ	-8943
▁tumbled	-8944
quisitely	-8945
▁Carriage	-8946
▁Columbia	-8947
▁Eligible	-8948
▁everywhere	-8949
▁greenhouse	-8950
▁Reservation	-8951
Ft	-8952
/25	-8953
kin	-8954
game	-8955
▁123	-8956
leton	-8957
stove	-8958
▁cast	-8959
coming	-8960
▁Dennis	-8961
▁INDOOR	-8962
▁Clement	-8963
▁motivated	-8964
▁stackable	-8965
▁SPECTACULAR	-8966
heat	-8967
▁20'	-8968
▁Ell	-8969
ample	-8970
▁addt	-8971
imeter	-8972
▁08215	-8973
▁Media	-8974
▁Zoned	-8975
▁getting	-8976
▁hanging	-8977
▁willing	-8978
▁brimming	-8979
▁INSTALLED	-8980
▁4+	-8981
▁POSS	-8982
▁SKYL	-8983
▁date	-8984
asonry	-8985
aurice	-8986
▁07834	-8987
▁Alarm	-8988
▁volume	-8989
equipped	-8990
▁Cypress	-8991
▁Wallkill	-8992
▁charging	-8993
▁Edgewater	-8994
NY	-8995
nal	-8996
▁FI	-8997
Walk	-8998
▁10,	-8999
▁3.1	-9000
▁Sky	-9001
works	-9002
▁laun	-9003
▁plum	-9004
▁TILED	-9005
▁TRAIN	-9006
▁Tesla	-9007
▁COURSE	-9008
▁daylight	-9009
▁dreaming	-9010
▁valuable	-9011
▁unlimited	-9012
OMES	-9013
made	-9014
▁136	-9015
▁Nov	-9016
▁08505	-9017
▁lawns	-9018
▁walkin	-9019
▁appears	-9020
▁COMPLETE	-9021
▁switches	-9022
ENS	-9023
▁AW	-9024
alth	-9025
▁217	-9026
▁Awa	-9027
▁CAP	-9028
▁Lou	-9029
▁Cant	-9030
ources	-9031
▁11:59	-9032
▁health	-9033
▁affords	-9034
▁pedestal	-9035
▁INVESTORS	-9036
▁privately	-9037
uxe	-9038
▁ITS	-9039
anced	-9040
arely	-9041
ports	-9042
▁Ruth	-9043
▁maybe	-9044
▁OWNERS	-9045
▁Switch	-9046
▁ribbon	-9047
istening	-9048
ollowing	-9049
▁Further	-9050
▁Sprinklers	-9051
You	-9052
win	-9053
▁8-	-9054
RICT	-9055
▁Lyn	-9056
▁195,	-9057
▁slop	-9058
IVATED	-9059
eiving	-9060
enomen	-9061
▁08022	-9062
▁08071	-9063
▁Proper	-9064
▁camera	-9065
▁simple	-9066
▁temper	-9067
inations	-9068
▁CHARTER	-9069
▁Skyline	-9070
▁INGROUND	-9071
▁Architectural	-9072
▁MOT	-9073
▁VAN	-9074
garage	-9075
▁07843	-9076
▁AVAIL	-9077
▁Logan	-9078
▁early	-9079
▁Oaklyn	-9080
▁Pretty	-9081
▁REDONE	-9082
▁believe	-9083
▁indoors	-9084
▁missing	-9085
▁Fixtures	-9086
▁describe	-9087
▁informal	-9088
▁September	-9089
▁seclusion	-9090
▁RO	-9091
▁124	-9092
▁FAN	-9093
▁PROF	-9094
ENTIAL	-9095
▁07480	-9096
▁07704	-9097
▁HURRY	-9098
▁leaves	-9099
enomenal	-9100
▁Service	-9101
▁Relaxing	-9102
▁instantly	-9103
▁informational	-9104
OLE	-9105
TON	-9106
emon	-9107
ewel	-9108
rium	-9109
▁215	-9110
▁Aut	-9111
plete	-9112
▁Tall	-9113
▁doll	-9114
▁07203	-9115
▁easier	-9116
▁fitted	-9117
▁Herbert	-9118
▁Student	-9119
▁quarter	-9120
▁scenery	-9121
▁Lakehurst	-9122
nel	-9123
rian	-9124
▁Pin	-9125
unior	-9126
▁2014,	-9127
▁Backs	-9128
▁PATCO	-9129
▁break	-9130
▁older	-9131
Laundry	-9132
inating	-9133
▁Horton	-9134
▁century	-9135
entertain	-9136
▁Bungalow	-9137
▁Optional	-9138
▁Commuting	-9139
▁Woodlands	-9140
▁designated	-9141
▁historical	-9142
ria	-9143
▁McG	-9144
▁ven	-9145
▁grab	-9146
▁Hidden	-9147
▁amidst	-9148
▁Pennsbury	-9149
▁reasonable	-9150
glas	-9151
▁MON	-9152
▁AMEN	-9153
▁bars	-9154
▁AFTER	-9155
▁elect	-9156
manship	-9157
▁review	-9158
pe	-9159
▁190	-9160
▁Sar	-9161
▁WAS	-9162
▁Chel	-9163
▁Fern	-9164
▁Which	-9165
▁video	-9166
▁splend	-9167
▁similar	-9168
▁walkable	-9169
▁Alexandria	-9170
▁previously	-9171
IER	-9172
▁rt	-9173
▁212	-9174
asily	-9175
▁NEAR	-9176
▁Strath	-9177
▁gutted	-9178
▁return	-9179
▁planned	-9180
▁reduced	-9181
ilesgrove	-9182
▁5.	-9183
atch	-9184
eded	-9185
hole	-9186
rose	-9187
▁Beth	-9188
▁capt	-9189
▁Amwell	-9190
▁Avenel	-9191
▁moving	-9192
▁Premier	-9193
▁SITTING	-9194
▁baseball	-9195
▁unmatched	-9196
raim	-9197
▁138	-9198
▁Ask	-9199
▁Mur	-9200
▁Our	-9201
▁Fort	-9202
▁08244	-9203
▁BUYERS	-9204
▁number	-9205
stainless	-9206
▁Woolwich	-9207
▁Livingroom	-9208
▁humidifier	-9209
▁LANDSCAPING	-9210
▁organization	-9211
▁Eph	-9212
▁Fun	-9213
▁Rts	-9214
▁ear	-9215
▁leaf	-9216
access	-9217
oining	-9218
▁PRIME	-9219
▁Pools	-9220
▁Yacht	-9221
▁loving	-9222
▁Closing	-9223
▁Elmwood	-9224
▁Ephraim	-9225
▁Explore	-9226
▁reflects	-9227
▁delivered	-9228
▁conversation	-9229
haw	-9230
▁orn	-9231
▁auto	-9232
wnings	-9233
▁embod	-9234
▁faces	-9235
▁Locust	-9236
cellence	-9237
▁Setting	-9238
estanding	-9239
▁chestnut	-9240
▁AVAILABLE	-9241
▁balconies	-9242
ps	-9243
NDED	-9244
▁Pay	-9245
▁caf	-9246
patio	-9247
▁jets	-9248
easant	-9249
▁Greet	-9250
▁delic	-9251
▁fixer	-9252
▁Quaint	-9253
▁riding	-9254
▁Virtual	-9255
▁rolling	-9256
▁REPLACED	-9257
▁quartzite	-9258
▁potentially	-9259
rg	-9260
ige	-9261
olo	-9262
▁126	-9263
▁Mir	-9264
▁Saf	-9265
fresco	-9266
▁07078	-9267
▁(2022)	-9268
▁ENTRAN	-9269
▁lively	-9270
▁underg	-9271
▁Chimney	-9272
▁independ	-9273
▁Hillcrest	-9274
▁certainly	-9275
▁perimeter	-9276
▁protection	-9277
box	-9278
ico	-9279
▁$10	-9280
▁Six	-9281
▁5:00	-9282
▁expl	-9283
▁07974	-9284
▁Eagle	-9285
▁(2020)	-9286
▁accord	-9287
urbished	-9288
▁Rolling	-9289
▁shingle	-9290
▁Pheasant	-9291
▁maximize	-9292
▁Efficient	-9293
▁destinations	-9294
SM	-9295
eady	-9296
▁209	-9297
▁Did	-9298
▁His	-9299
▁Jul	-9300
▁MET	-9301
ilion	-9302
▁PICT	-9303
▁WEST	-9304
▁08108	-9305
▁Stand	-9306
▁fruit	-9307
▁order	-9308
▁Fridge	-9309
▁proble	-9310
▁Douglas	-9311
▁Popular	-9312
▁Elegance	-9313
▁UPSTAIRS	-9314
▁Apartment	-9315
▁leisurely	-9316
▁undergone	-9317
IB	-9318
Se	-9319
imen	-9320
▁211	-9321
▁bes	-9322
grade	-9323
quire	-9324
▁1500	-9325
▁SITU	-9326
sville	-9327
▁08009	-9328
▁track	-9329
sliders	-9330
▁(2023)	-9331
▁detect	-9332
▁capture	-9333
▁Enormous	-9334
▁spanning	-9335
.~	-9336
ean	-9337
laid	-9338
▁sat	-9339
ERSEY	-9340
erate	-9341
▁1900	-9342
▁Immed	-9343
▁LOWER	-9344
▁pours	-9345
▁Fairways	-9346
▁Workshop	-9347
▁IMMACULATE	-9348
edy	-9349
ino	-9350
▁145	-9351
▁FUN	-9352
▁TRUE	-9353
▁bush	-9354
▁fair	-9355
▁gear	-9356
▁08620	-9357
▁Opens	-9358
▁savor	-9359
▁OUTSIDE	-9360
▁Sizable	-9361
ification	-9362
▁Installed	-9363
▁important	-9364
9.	-9365
ERN	-9366
izza	-9367
onic	-9368
▁CLE	-9369
▁dra	-9370
velle	-9371
▁mere	-9372
hawken	-9373
▁limit	-9374
▁TUESDAY	-9375
▁Whitman	-9376
▁prepared	-9377
▁FEATURING	-9378
▁MOTIVATED	-9379
▁Weehawken	-9380
▁transformation	-9381
▁EZ	-9382
ares	-9383
▁#1,	-9384
▁221	-9385
▁WED	-9386
enses	-9387
towne	-9388
▁atop	-9389
▁elec	-9390
ucolic	-9391
▁Activ	-9392
▁spray	-9393
library	-9394
▁LEADING	-9395
▁banquet	-9396
▁INCLUDES	-9397
▁consisting	-9398
▁:	-9399
RED	-9400
deck	-9401
ends	-9402
▁Mel	-9403
▁Avon	-9404
center	-9405
▁07109	-9406
▁07405	-9407
▁07456	-9408
▁Combo	-9409
▁Glend	-9410
▁quest	-9411
▁Bottom	-9412
▁JERSEY	-9413
▁Wright	-9414
▁Delanco	-9415
▁Lavelle	-9416
▁Present	-9417
▁Clementon	-9418
▁illuminated	-9419
Ch	-9420
obal	-9421
▁70,	-9422
▁DEL	-9423
guest	-9424
ravel	-9425
▁Carl	-9426
▁Rain	-9427
▁crab	-9428
▁nest	-9429
▁Foods	-9430
▁Hight	-9431
▁Friend	-9432
▁staged	-9433
FINISHED	-9434
▁Rocking	-9435
▁VENTURES	-9436
▁superior	-9437
▁dimensional	-9438
oven	-9439
▁132	-9440
▁OAK	-9441
state	-9442
▁Cost	-9443
▁brew	-9444
▁lock	-9445
▁pane	-9446
▁07727	-9447
▁07762	-9448
▁08502	-9449
▁08830	-9450
▁LEADS	-9451
▁ahead	-9452
▁incre	-9453
▁SOUGHT	-9454
▁WOODED	-9455
▁usable	-9456
alladian	-9457
▁crystal	-9458
▁speaker	-9459
▁surface	-9460
▁Terrific	-9461
▁magazine	-9462
▁courtyard	-9463
lar	-9464
▁Ly	-9465
▁1/4	-9466
▁Bike	-9467
▁Comb	-9468
ogging	-9469
▁lived	-9470
▁Better	-9471
▁Global	-9472
▁occupy	-9473
▁SECTION	-9474
▁submitted	-9475
▁exceptionally	-9476
ba	-9477
SOL	-9478
cove	-9479
erse	-9480
rail	-9481
▁133	-9482
▁PER	-9483
bling	-9484
▁Dead	-9485
▁REQU	-9486
▁soff	-9487
▁exact	-9488
updated	-9489
▁Guests	-9490
possible	-9491
▁Equipped	-9492
▁centered	-9493
▁Efficiency	-9494
▁Hightstown	-9495
▁Impeccable	-9496
ask	-9497
cho	-9498
Wood	-9499
ases	-9500
▁RIV	-9501
▁100'	-9502
▁Azek	-9503
▁EXTE	-9504
▁Ship	-9505
▁eyes	-9506
▁07922	-9507
▁CONTR	-9508
▁Metro	-9509
oration	-9510
▁Notice	-9511
▁damage	-9512
▁nicest	-9513
ersville	-9514
▁mounted	-9515
XT	-9516
▁2/	-9517
▁ra	-9518
look	-9519
▁Case	-9520
▁Jour	-9521
▁NJTP	-9522
▁lazy	-9523
ricate	-9524
▁08322	-9525
▁dwell	-9526
▁works	-9527
▁SLIDING	-9528
ighthouse	-9529
▁Highschool	-9530
▁timberline	-9531
▁Picturesque	-9532
▁spaciousness	-9533
bay	-9534
▁86	-9535
▁RA	-9536
▁1/3	-9537
owner	-9538
▁contr	-9539
quality	-9540
▁Facing	-9541
▁motorized	-9542
150	-9543
tery	-9544
▁POT	-9545
▁unf	-9546
inity	-9547
▁Atco	-9548
▁Hamp	-9549
▁LIVE	-9550
▁07005	-9551
ilworth	-9552
▁Safety	-9553
condition	-9554
▁Lakeside	-9555
▁carefree	-9556
▁surprise	-9557
ORY	-9558
REC	-9559
▁94	-9560
▁wr	-9561
ober	-9562
▁Yes	-9563
▁link	-9564
▁opul	-9565
▁padd	-9566
▁Harmon	-9567
▁suited	-9568
▁waters	-9569
ervation	-9570
▁Glenwood	-9571
▁Kenilworth	-9572
ISE	-9573
LINE	-9574
hang	-9575
▁SER	-9576
aucus	-9577
stream	-9578
▁07006	-9579
▁08069	-9580
▁08752	-9581
▁wowed	-9582
▁HIGHLY	-9583
▁manage	-9584
▁sealed	-9585
▁Monthly	-9586
▁Secaucus	-9587
▁Porcelain	-9588
▁Residents	-9589
▁combining	-9590
▁Delightful	-9591
igenerational	-9592
ck	-9593
acon	-9594
loss	-9595
▁OCC	-9596
▁Spend	-9597
▁certs	-9598
▁(2024),	-9599
▁Repairs	-9600
▁climate	-9601
▁verified	-9602
▁highlighting	-9603
▁92	-9604
▁GO	-9605
ATING	-9606
▁LONG	-9607
▁roam	-9608
▁Vacant	-9609
▁knocks	-9610
▁secret	-9611
OINTMENT	-9612
▁Radiant	-9613
▁Theater	-9614
▁arrival	-9615
▁doubles	-9616
▁Skylight	-9617
▁delicious	-9618
AMIC	-9619
yman	-9620
▁AMP	-9621
▁MOD	-9622
ament	-9623
ormer	-9624
asures	-9625
▁HOMES	-9626
▁SUPER	-9627
▁Around	-9628
▁Bamboo	-9629
▁doorway	-9630
▁summers	-9631
▁Playroom	-9632
-5	-9633
IBR	-9634
▁93	-9635
▁42-	-9636
ASTIC	-9637
plank	-9638
▁intr	-9639
▁07011	-9640
▁07945	-9641
▁COULD	-9642
▁Royal	-9643
▁SIZED	-9644
▁drawn	-9645
▁Awning	-9646
▁Filled	-9647
▁cleared	-9648
▁ductless	-9649
▁delighted	-9650
▁extending	-9651
▁townhouse	-9652
81	-9653
85	-9654
RD	-9655
tor	-9656
▁55,	-9657
▁rev	-9658
ition	-9659
▁(2012	-9660
▁08558	-9661
▁2013.	-9662
▁GREEN	-9663
▁SINKS	-9664
▁speed	-9665
▁BOASTS	-9666
▁Outlet	-9667
▁bushes	-9668
▁mirrors	-9669
▁SITUATED	-9670
▁Hampshire	-9671
▁Yorkshire	-9672
▁executive	-9673
▁Replacement	-9674
▁6'	-9675
Room	-9676
▁Bou	-9677
▁ris	-9678
renov	-9679
▁07755	-9680
▁2024,	-9681
▁YOURS	-9682
▁slide	-9683
▁Chelsea	-9684
▁Kennedy	-9685
▁immense	-9686
▁Contract	-9687
dwd	-9688
▁$3	-9689
▁MB	-9690
▁Liv	-9691
losed	-9692
▁Cafe	-9693
▁NEST	-9694
▁mach	-9695
▁07853	-9696
▁08312	-9697
▁rents	-9698
▁Golden	-9699
▁assess	-9700
▁BURNING	-9701
▁HEATING	-9702
▁commode	-9703
▁strateg	-9704
▁qualifies	-9705
".	-9706
su	-9707
THE	-9708
atin	-9709
▁137	-9710
▁Ann	-9711
▁row	-9712
AMING	-9713
▁1800	-9714
▁Keep	-9715
▁REFR	-9716
oloking	-9717
▁Awaits	-9718
▁Forced	-9719
▁Concord	-9720
▁awnings	-9721
▁Abundant	-9722
▁Bulkhead	-9723
▁Tranquil	-9724
▁essentials	-9725
▁Mantoloking	-9726
aux	-9727
eral	-9728
▁Lenn	-9729
▁adap	-9730
▁says	-9731
erally	-9732
orious	-9733
▁bells	-9734
▁birds	-9735
▁sales	-9736
umerous	-9737
▁brought	-9738
▁bucolic	-9739
▁masonry	-9740
▁HIGHWAYS	-9741
▁townhome	-9742
▁Hardyston	-9743
▁enjoyable	-9744
▁personalize	-9745
ZY	-9746
east	-9747
shed	-9748
▁Dis	-9749
tiled	-9750
▁flip	-9751
▁vist	-9752
▁08090	-9753
▁paying	-9754
▁assessed	-9755
▁visitors	-9756
▁Finishing	-9757
▁Homestead	-9758
▁additions	-9759
▁settlement	-9760
▁freestanding	-9761
▁proportioned	-9762
6,	-9763
gar	-9764
ien	-9765
▁96	-9766
CING	-9767
ands	-9768
plus	-9769
rable	-9770
▁bord	-9771
▁yoga	-9772
forget	-9773
▁07043	-9774
▁Areas	-9775
▁cabin	-9776
▁stays	-9777
▁EXPANS	-9778
▁Compass	-9779
▁EXTENDED	-9780
▁activity	-9781
▁casement	-9782
▁Extremely	-9783
▁intricate	-9784
▁Rutherford	-9785
▁Inspections	-9786
bus	-9787
two	-9788
▁#1	-9789
ceed	-9790
▁230	-9791
ONDAY	-9792
▁WIDE	-9793
olding	-9794
▁07940	-9795
leyball	-9796
▁Canter	-9797
▁Christ	-9798
▁launch	-9799
▁bordering	-9800
▁documents	-9801
▁horseshoe	-9802
forgettable	-9803
▁Plantation	-9804
▁separately	-9805
▁$7	-9806
▁SM	-9807
larged	-9808
▁07054	-9809
▁08110	-9810
▁MONDAY	-9811
▁PREMIUM	-9812
▁borders	-9813
▁wrapped	-9814
manicured	-9815
▁Building	-9816
▁Mahogany	-9817
▁cultural	-9818
▁neighboring	-9819
AG	-9820
unt	-9821
▁ov	-9822
mond	-9823
▁223	-9824
▁BTH	-9825
▁Esc	-9826
▁Mac	-9827
▁Nav	-9828
▁PLAY	-9829
▁hvac	-9830
IBRARY	-9831
▁08201	-9832
▁ADULT	-9833
▁George	-9834
▁Harvey	-9835
▁stretch	-9836
▁ENTRANCE	-9837
▁Sunlight	-9838
▁whistles	-9839
▁following	-9840
Open	-9841
wine	-9842
▁170	-9843
▁dip	-9844
ushed	-9845
▁Deal	-9846
▁crow	-9847
▁flag	-9848
▁08501	-9849
▁(2017)	-9850
▁Clover	-9851
▁picket	-9852
▁Walkway	-9853
▁toilets	-9854
▁APPOINTMENT	-9855
▁refurbished	-9856
▁unforgettable	-9857
cer	-9858
lake	-9859
/2023	-9860
▁CITY	-9861
▁Impr	-9862
▁code	-9863
▁save	-9864
▁sund	-9865
cation	-9866
levard	-9867
rolled	-9868
▁canoe	-9869
▁chick	-9870
▁given	-9871
emonade	-9872
▁MODERN	-9873
▁Dinette	-9874
▁average	-9875
▁parquet	-9876
▁sunrises	-9877
▁treasure	-9878
▁dimensions	-9879
▁undermount	-9880
▁encompasses	-9881
▁temperature	-9882
-3	-9883
/28	-9884
rid	-9885
▁CA	-9886
▁DW	-9887
▁WI	-9888
IQUE	-9889
ucks	-9890
▁WIN	-9891
▁got	-9892
grams	-9893
▁Kend	-9894
▁Mich	-9895
Updated	-9896
▁alcove	-9897
ANTASTIC	-9898
▁minimal	-9899
▁daughter	-9900
▁quintessential	-9901
EF	-9902
HS	-9903
obs	-9904
▁139	-9905
▁141	-9906
▁218	-9907
▁35,	-9908
▁DIS	-9909
▁PACK	-9910
▁08863	-9911
▁alone	-9912
▁photo	-9913
▁shoes	-9914
▁ultra	-9915
▁Jitney	-9916
▁toward	-9917
▁TOTALLY	-9918
▁staying	-9919
▁Merchant	-9920
▁Sherwood	-9921
▁alfresco	-9922
▁Canterbury	-9923
▁INVESTMENT	-9924
▁exquisitely	-9925
/-	-9926
▁2/3	-9927
▁Ivy	-9928
▁OCCUP	-9929
▁Phila	-9930
▁Seize	-9931
▁uniqu	-9932
ylvania	-9933
▁Subzero	-9934
▁curated	-9935
▁notable	-9936
▁powered	-9937
▁imported	-9938
▁Thoughtfully	-9939
och	-9940
pty	-9941
▁FDR	-9942
▁Son	-9943
▁apt	-9944
▁Mary	-9945
▁vary	-9946
igured	-9947
▁07304	-9948
▁cafes	-9949
▁SEASON	-9950
▁styled	-9951
▁Journal	-9952
▁Newport	-9953
▁Starting	-9954
▁blacktop	-9955
▁outbuilding	-9956
▁305	-9957
▁LIN	-9958
▁mon	-9959
brick	-9960
views	-9961
▁MASS	-9962
ressor	-9963
▁07205	-9964
▁07738	-9965
▁08837	-9966
LEAMING	-9967
▁Escrow	-9968
▁festiv	-9969
********	-9970
▁(2015),	-9971
▁SOAKING	-9972
▁districts	-9973
▁promising	-9974
CY	-9975
OX	-9976
TV	-9977
Com	-9978
sle	-9979
▁Tur	-9980
▁dbl	-9981
▁Away	-9982
▁EAST	-9983
▁camp	-9984
▁pill	-9985
▁08093	-9986
▁ALERT	-9987
▁GRAND	-9988
▁suppl	-9989
▁INSIDE	-9990
▁Income	-9991
enclosed	-9992
▁elevate	-9993
▁letting	-9994
▁Although	-9995
▁Pennsylvania	-9996
!),	-9997
▁6,	-9998
clay	-9999
SOLUT	-10000
▁NOTE	-10001
▁07017	-10002
▁08031	-10003
▁08225	-10004
▁08318	-10005
▁DECOR	-10006
▁Broker	-10007
▁soccer	-10008
▁October	-10009
▁framing	-10010
▁plumbed	-10011
▁Wellington	-10012
▁ec	-10013
With	-10014
oman	-10015
▁134	-10016
▁Box	-10017
orough	-10018
▁07047	-10019
▁07106	-10020
▁event	-10021
▁jewel	-10022
▁REFRIG	-10023
▁saving	-10024
▁LOOKING	-10025
▁dreamed	-10026
▁Preserve	-10027
▁upcoming	-10028
▁Activities	-10029
▁countryside	-10030
▁celebrations	-10031
▁representative	-10032
▁1+	-10033
ERED	-10034
skyl	-10035
▁Spe	-10036
▁hit	-10037
/2020	-10038
ERATOR	-10039
▁07739	-10040
▁incor	-10041
▁Trains	-10042
▁Warwick	-10043
▁optimal	-10044
▁clubhouses	-10045
▁Approximately	-10046
EP	-10047
KIT	-10048
ols	-10049
rob	-10050
Path	-10051
udio	-10052
unch	-10053
▁OAS	-10054
▁pip	-10055
!!!!!	-10056
/2024	-10057
iques	-10058
▁CASH	-10059
▁Summ	-10060
▁burst	-10061
▁Follow	-10062
▁Pickle	-10063
▁exceed	-10064
▁Backing	-10065
▁Basking	-10066
▁Insured	-10067
▁PROFESS	-10068
▁hobbyist	-10069
▁FANTASTIC	-10070
▁originally	-10071
asc	-10072
tley	-10073
▁222	-10074
▁310	-10075
▁Cre	-10076
▁FAC	-10077
▁noon	-10078
ecting	-10079
istant	-10080
▁Remark	-10081
▁Coastal	-10082
▁Highway	-10083
▁calling	-10084
▁perhaps	-10085
▁problem	-10086
▁Crescent	-10087
▁hallways	-10088
▁Proximity	-10089
▁standards	-10090
▁Continuing	-10091
AV	-10092
/18	-10093
bone	-10094
mans	-10095
plar	-10096
smos	-10097
▁THR	-10098
count	-10099
▁Kitt	-10100
▁appt	-10101
▁07756	-10102
▁Billi	-10103
▁DRYER	-10104
▁Mirage	-10105
▁fingert	-10106
▁typical	-10107
▁expenses	-10108
▁buildings	-10109
▁Irrigation	-10110
▁afternoons	-10111
bon	-10112
EWER	-10113
laws	-10114
▁155	-10115
▁225	-10116
▁73,	-10117
▁2500	-10118
▁GARD	-10119
▁Norm	-10120
▁bowl	-10121
chedul	-10122
imated	-10123
▁08107	-10124
▁ABOVE	-10125
▁admire	-10126
▁owning	-10127
▁Diamond	-10128
▁perched	-10129
▁computer	-10130
▁Furniture	-10131
▁overnight	-10132
IA	-10133
hot	-10134
inos	-10135
▁213	-10136
▁ups	-10137
amore	-10138
zoned	-10139
▁Grab	-10140
▁Hood	-10141
▁dazz	-10142
▁embr	-10143
▁kick	-10144
ERAMIC	-10145
ishing	-10146
smosis	-10147
▁WOODS	-10148
▁hills	-10149
▁seeing	-10150
▁ABSOLUT	-10151
▁Barclay	-10152
▁Leonardo	-10153
▁specimen	-10154
▁spotless	-10155
▁fireworks	-10156
▁Restaurant	-10157
▁fingertips	-10158
▁glistening	-10159
▁Traditional	-10160
▁Herbertsville	-10161
▁pk	-10162
▁165	-10163
▁4-5	-10164
▁MAY	-10165
▁Myr	-10166
▁HEAR	-10167
▁mast	-10168
▁OASIS	-10169
▁Ortley	-10170
▁attics	-10171
▁tables	-10172
Spacious	-10173
▁cutting	-10174
▁Strictly	-10175
▁preserve	-10176
▁repainted	-10177
▁contingent	-10178
▁Merchantville	-10179
▁Us	-10180
cend	-10181
cool	-10182
▁142	-10183
▁224	-10184
▁SPEC	-10185
▁sett	-10186
▁07044	-10187
estrian	-10188
▁Easily	-10189
▁crafts	-10190
▁higher	-10191
▁iconic	-10192
▁Georget	-10193
▁Harmony	-10194
▁LIBRARY	-10195
▁amenity	-10196
▁screens	-10197
▁GLEAMING	-10198
▁Numerous	-10199
▁Vacation	-10200
▁carriage	-10201
▁programs	-10202
▁AMENITIES	-10203
▁POTENTIAL	-10204
▁sheetrock	-10205
▁440	-10206
posed	-10207
▁000.	-10208
▁Burn	-10209
▁Pear	-10210
▁WARM	-10211
▁jill	-10212
▁08098	-10213
▁2013,	-10214
▁CLEAN	-10215
▁layer	-10216
▁series	-10217
▁zoning	-10218
aminated	-10219
bedrooms	-10220
ringbone	-10221
▁WAITING	-10222
▁choices	-10223
▁HomePath	-10224
▁INTERIOR	-10225
▁MOLDINGS	-10226
▁Boulevard	-10227
▁Turnersville	-10228
CON	-10229
EBO	-10230
THIS	-10231
bour	-10232
imum	-10233
▁NOON	-10234
▁08835	-10235
▁rates	-10236
▁scene	-10237
athered	-10238
▁VANITY	-10239
▁yearly	-10240
▁sharing	-10241
▁CONTRACT	-10242
▁Featured	-10243
▁Stepping	-10244
▁embodies	-10245
▁multitude	-10246
▁Georgetown	-10247
▁Lighthouse	-10248
tile	-10249
▁ADT	-10250
▁ful	-10251
▁she	-10252
ITING	-10253
▁Post	-10254
▁educ	-10255
French	-10256
atives	-10257
▁08833	-10258
▁Stein	-10259
▁perks	-10260
▁title	-10261
▁LUXURY	-10262
▁Pavers	-10263
▁Yellow	-10264
▁result	-10265
▁vistas	-10266
▁knowing	-10267
▁Adjoining	-10268
▁deceiving	-10269
▁Fireplaces	-10270
▁Conservatory	-10271
▁Hi	-10272
inst	-10273
ustr	-10274
▁Exc	-10275
▁LAM	-10276
▁San	-10277
▁Tar	-10278
itary	-10279
▁1920	-10280
▁Leaf	-10281
elving	-10282
▁08004	-10283
▁Condo	-10284
▁satis	-10285
▁jitney	-10286
▁Profile	-10287
▁Reading	-10288
▁against	-10289
▁express	-10290
▁reality	-10291
▁Extensive	-10292
▁Insurance	-10293
▁transport	-10294
?!	-10295
EIV	-10296
▁KN	-10297
ello	-10298
uire	-10299
▁148	-10300
▁149	-10301
▁COZY	-10302
▁Echo	-10303
▁Shad	-10304
▁Sump	-10305
atinny	-10306
pantry	-10307
verted	-10308
▁07764	-10309
▁08051	-10310
▁Young	-10311
▁canal	-10312
▁cross	-10313
▁farms	-10314
▁SLIDER	-10315
▁deemed	-10316
▁dormer	-10317
▁struct	-10318
▁Regency	-10319
▁designs	-10320
▁restore	-10321
▁dwelling	-10322
HW	-10323
ops	-10324
▁HD	-10325
▁PE	-10326
iper	-10327
ERSON	-10328
arded	-10329
unner	-10330
▁Card	-10331
▁FARM	-10332
▁jour	-10333
▁reim	-10334
ederal	-10335
▁07307	-10336
▁Palis	-10337
▁shake	-10338
▁Coffee	-10339
▁proper	-10340
▁skiing	-10341
▁CONCEPT	-10342
▁Kendall	-10343
unctional	-10344
▁impresses	-10345
▁limitless	-10346
▁stairwell	-10347
EAL	-10348
POS	-10349
▁DI	-10350
▁Er	-10351
ened	-10352
iams	-10353
otty	-10354
stop	-10355
▁1.1	-10356
▁18'	-10357
▁hop	-10358
▁sea	-10359
wards	-10360
▁fuel	-10361
soaked	-10362
▁08904	-10363
▁Eaton	-10364
▁STAIR	-10365
▁wraps	-10366
▁barbequ	-10367
▁contrib	-10368
▁worries	-10369
▁SURROUND	-10370
▁concerts	-10371
▁thorough	-10372
▁Lakefront	-10373
▁detectors	-10374
▁homebuyer	-10375
▁Kittatinny	-10376
▁appreciated	-10377
vin	-10378
▁$2	-10379
▁bd	-10380
ISED	-10381
ague	-10382
▁231	-10383
▁TIM	-10384
▁rej	-10385
Built	-10386
▁Gard	-10387
▁Laur	-10388
person	-10389
▁07950	-10390
▁Elmer	-10391
▁RIDGE	-10392
▁SEWER	-10393
Carneys	-10394
▁Circle	-10395
▁Horses	-10396
▁boards	-10397
▁Commons	-10398
▁expectations	-10399
Sl	-10400
LIT	-10401
▁16'	-10402
▁214	-10403
▁RET	-10404
▁Belv	-10405
▁CONC	-10406
▁Frig	-10407
▁zero	-10408
▁07081	-10409
▁07757	-10410
▁08048	-10411
▁08512	-10412
▁Trees	-10413
▁meter	-10414
▁INCRED	-10415
▁atrium	-10416
▁stress	-10417
▁Midland	-10418
▁generating	-10419
▁technology	-10420
FP	-10421
---	-10422
ugg	-10423
▁7/	-10424
Like	-10425
▁Men	-10426
opane	-10427
▁Conn	-10428
▁teen	-10429
island	-10430
iverse	-10431
▁Patco	-10432
▁towel	-10433
▁beloved	-10434
▁lakeside	-10435
▁guarantee	-10436
▁representations	-10437
INS	-10438
hem	-10439
rep	-10440
▁9.	-10441
▁Ba	-10442
West	-10443
olds	-10444
park	-10445
▁MAG	-10446
▁tea	-10447
block	-10448
media	-10449
notch	-10450
▁BILL	-10451
▁bead	-10452
▁deer	-10453
▁lane	-10454
▁ward	-10455
omical	-10456
▁2012.	-10457
▁Adams	-10458
▁Bdrms	-10459
▁Grass	-10460
▁notch	-10461
▁pizza	-10462
▁CHERRY	-10463
▁UNIQUE	-10464
▁Versat	-10465
▁Alloway	-10466
▁WALKING	-10467
▁Newfield	-10468
▁RECENTLY	-10469
▁bordered	-10470
▁delights	-10471
Fi	-10472
ded	-10473
lot	-10474
▁$4	-10475
IDAY	-10476
ista	-10477
ystic	-10478
▁TRANS	-10479
▁flank	-10480
▁issue	-10481
ICULOUS	-10482
▁Breeze	-10483
▁Captiv	-10484
▁ENCLOS	-10485
▁decide	-10486
dressing	-10487
▁Garwood	-10488
▁Hilltop	-10489
▁credits	-10490
▁Purchaser	-10491
▁Attractive	-10492
▁unbelievable	-10493
▁accommodations	-10494
FH	-10495
lo	-10496
▁Tp	-10497
▁Wi	-10498
lord	-10499
pace	-10500
INGLE	-10501
ronic	-10502
▁THRU	-10503
▁hung	-10504
raisal	-10505
▁07066	-10506
▁NEEDS	-10507
▁Veter	-10508
▁banks	-10509
▁suits	-10510
Conveni	-10511
▁backed	-10512
▁incent	-10513
▁newest	-10514
▁parlor	-10515
▁contact	-10516
▁journey	-10517
▁utilize	-10518
▁pleasing	-10519
▁Honeywell	-10520
▁Palladian	-10521
▁mouldings	-10522
▁testament	-10523
▁Engineered	-10524
▁baseboards	-10525
▁REFRIGERATOR	-10526
▁transferrable	-10527
AF	-10528
net	-10529
oli	-10530
furn	-10531
toge	-10532
ising	-10533
▁visual	-10534
▁enlarged	-10535
▁incorpor	-10536
▁overhang	-10537
▁Manicured	-10538
▁integrated	-10539
CA	-10540
▁(6	-10541
▁4/	-10542
▁175	-10543
▁219	-10544
▁308	-10545
▁POW	-10546
▁Kind	-10547
▁TANK	-10548
▁08083	-10549
▁Sheds	-10550
▁World	-10551
▁Mystic	-10552
▁bigger	-10553
▁Pergola	-10554
▁markets	-10555
▁support	-10556
▁Riverton	-10557
▁Williams	-10558
▁regarded	-10559
▁seashore	-10560
▁phenomenal	-10561
'.	-10562
.-	-10563
Mud	-10564
LING	-10565
TERS	-10566
iber	-10567
rier	-10568
▁ANY	-10569
▁McC	-10570
aview	-10571
elter	-10572
haven	-10573
white	-10574
▁QUAL	-10575
▁Thru	-10576
▁till	-10577
▁07062	-10578
▁08850	-10579
▁Brist	-10580
▁RIVER	-10581
▁Yours	-10582
▁phone	-10583
▁Detail	-10584
▁Galore	-10585
▁expert	-10586
▁Heather	-10587
▁Outlets	-10588
▁Reduced	-10589
▁SPECIAL	-10590
▁pavilion	-10591
▁METICULOUS	-10592
Zone	-10593
▁Dur	-10594
▁FPL	-10595
▁era	-10596
▁sil	-10597
overs	-10598
▁Flow	-10599
▁fuss	-10600
▁08536	-10601
▁BRING	-10602
▁Marsh	-10603
▁WHOLE	-10604
▁chill	-10605
▁Myrtle	-10606
▁Poplar	-10607
▁Victor	-10608
▁movies	-10609
▁roofing	-10610
▁anywhere	-10611
▁bursting	-10612
▁improved	-10613
▁Cranberry	-10614
bd	-10615
ECK	-10616
LED	-10617
ANDY	-10618
WALK	-10619
▁42,	-10620
▁78.	-10621
▁Tay	-10622
NIFIC	-10623
▁Cert	-10624
▁THAN	-10625
▁trip	-10626
▁07718	-10627
▁08010	-10628
▁GATED	-10629
▁Linen	-10630
▁Sound	-10631
atching	-10632
▁Studio	-10633
▁archways	-10634
▁volleyball	-10635
▁Residential	-10636
▁ME	-10637
▁YR	-10638
▁my	-10639
FFIC	-10640
PPER	-10641
▁144	-10642
▁Sep	-10643
▁CAPE	-10644
▁Lynn	-10645
▁Resp	-10646
▁bask	-10647
heated	-10648
▁07821	-10649
▁07930	-10650
▁08030	-10651
▁08628	-10652
▁comfy	-10653
▁ESTATE	-10654
▁gallon	-10655
▁stones	-10656
▁accentu	-10657
▁divided	-10658
▁indulge	-10659
▁Kingston	-10660
▁Strathmore	-10661
▁purchasing	-10662
▁contractors	-10663
▁installation	-10664
▁FB	-10665
enic	-10666
▁#35	-10667
▁$2,	-10668
▁315	-10669
▁TOUR	-10670
▁08848	-10671
▁Meted	-10672
▁Blinds	-10673
▁STRICT	-10674
▁Subway	-10675
▁gaming	-10676
edgewood	-10677
▁Bayview	-10678
▁Charles	-10679
▁Federal	-10680
▁UPDATES	-10681
▁diverse	-10682
▁streams	-10683
▁radiator	-10684
▁tailored	-10685
▁Chandelier	-10686
BD	-10687
avy	-10688
usc	-10689
▁PH	-10690
OVED	-10691
anda	-10692
ingu	-10693
▁360	-10694
▁dig	-10695
▁rms	-10696
/2022	-10697
IRECT	-10698
econk	-10699
ickel	-10700
lehem	-10701
▁CONT	-10702
▁Sits	-10703
asting	-10704
uccess	-10705
▁Liner	-10706
▁Shows	-10707
▁recon	-10708
▁Health	-10709
▁Lennox	-10710
▁SINGLE	-10711
▁served	-10712
▁vented	-10713
▁CERAMIC	-10714
▁ability	-10715
renovated	-10716
▁Independ	-10717
▁distingu	-10718
▁openness	-10719
▁questions	-10720
BU	-10721
bb	-10722
HIP	-10723
TLE	-10724
gin	-10725
gym	-10726
ects	-10727
moor	-10728
▁320	-10729
▁Doc	-10730
▁PUR	-10731
▁WFH	-10732
▁WON	-10733
▁Chap	-10734
▁08510	-10735
▁08852	-10736
sunroom	-10737
▁Rental	-10738
▁junior	-10739
▁Seaview	-10740
▁wardrob	-10741
▁STRICTLY	-10742
▁resident	-10743
▁Bethlehem	-10744
▁Brookwood	-10745
▁statement	-10746
▁togethers	-10747
▁Metedeconk	-10748
▁Conventional	-10749
▁certificates	-10750
It	-10751
IED	-10752
Sun	-10753
ext	-10754
ubb	-10755
▁Gre	-10756
▁Tit	-10757
▁bat	-10758
▁Glad	-10759
▁corn	-10760
▁talk	-10761
ENTION	-10762
▁07442	-10763
▁Visit	-10764
▁therm	-10765
▁Beacon	-10766
▁ENTIRE	-10767
▁marvel	-10768
▁Details	-10769
▁machine	-10770
▁stories	-10771
▁DISTANCE	-10772
▁ENCLOSED	-10773
▁lemonade	-10774
▁storybook	-10775
112	-10776
▁6.	-10777
▁7-	-10778
▁30-	-10779
▁42'	-10780
▁BOC	-10781
▁DAY	-10782
▁EXCE	-10783
▁Isle	-10784
......	-10785
window	-10786
▁Craft	-10787
▁LAMIN	-10788
▁Venue	-10789
Outside	-10790
ifamily	-10791
▁RECEIV	-10792
▁packed	-10793
▁schedul	-10794
▁Wildlife	-10795
▁graceful	-10796
▁mirrored	-10797
controlled	-10798
▁EXPANSIVE	-10799
▁acclaimed	-10800
WD	-10801
270	-10802
CAR	-10803
LAW	-10804
Two	-10805
▁awe	-10806
▁eff	-10807
enser	-10808
izers	-10809
▁STUD	-10810
▁trek	-10811
▁07825	-10812
▁PLACE	-10813
▁forms	-10814
▁gates	-10815
▁giant	-10816
▁grant	-10817
▁hurry	-10818
▁EXCEPT	-10819
▁Larger	-10820
▁Lastly	-10821
▁couldn	-10822
▁hassle	-10823
▁Fairway	-10824
▁Friends	-10825
▁portico	-10826
▁proudly	-10827
▁sunporch	-10828
▁Woodcrest	-10829
▁boutiques	-10830
▁Appointment	-10831
▁transferred	-10832
')	-10833
Ph	-10834
-78	-10835
▁av	-10836
CASE	-10837
▁2-3	-10838
▁Hel	-10839
▁Shi	-10840
▁bab	-10841
▁USED	-10842
▁tiki	-10843
recess	-10844
▁Titus	-10845
▁Video	-10846
bership	-10847
▁Bristol	-10848
▁Dinning	-10849
▁MASSIVE	-10850
▁Oakwood	-10851
▁Offered	-10852
▁drywall	-10853
▁exactly	-10854
▁forward	-10855
▁catering	-10856
▁document	-10857
▁glorious	-10858
▁solarium	-10859
▁Character	-10860
▁INCREDIBLE	-10861
DL	-10862
500	-10863
ARDS	-10864
▁38,	-10865
▁Bat	-10866
▁FIT	-10867
▁coz	-10868
andem	-10869
▁SQFT	-10870
▁glow	-10871
▁grou	-10872
flower	-10873
utions	-10874
▁07924	-10875
▁08884	-10876
▁Param	-10877
▁accur	-10878
▁empty	-10879
▁slips	-10880
▁kayaks	-10881
▁farmers	-10882
▁rejuven	-10883
▁soffits	-10884
▁CONVENIENT	-10885
▁conditions	-10886
▁hardscaped	-10887
▁livingroom	-10888
▁complements	-10889
▁herringbone	-10890
pled	-10891
▁10/	-10892
▁arts	-10893
▁STEPS	-10894
▁DIRECT	-10895
▁Marion	-10896
separate	-10897
▁Belgium	-10898
▁ENSUITE	-10899
▁PACKAGE	-10900
▁Subject	-10901
▁acreage	-10902
▁inspire	-10903
▁osmosis	-10904
▁pavered	-10905
▁purpose	-10906
▁Superior	-10907
▁Vanities	-10908
▁Westwood	-10909
▁poolside	-10910
▁cocktails	-10911
Ap	-10912
/26	-10913
ELD	-10914
MIT	-10915
▁12-	-10916
▁147	-10917
▁304	-10918
▁Def	-10919
▁Hur	-10920
▁UNP	-10921
/2021	-10922
▁Mine	-10923
▁07023	-10924
▁2012,	-10925
▁Decks	-10926
▁Touch	-10927
▁spent	-10928
tonwood	-10929
▁Behind	-10930
▁Scenic	-10931
▁Shadow	-10932
▁Splash	-10933
▁artist	-10934
▁canopy	-10935
▁inlaid	-10936
▁survey	-10937
exercise	-10938
▁deserve	-10939
▁Cliffwood	-10940
▁Presenting	-10941
Key	-10942
OFF	-10943
orld	-10944
▁Ald	-10945
▁Tam	-10946
▁Tun	-10947
ATIVE	-10948
LLENT	-10949
idere	-10950
ridor	-10951
▁Such	-10952
▁WEDN	-10953
▁tear	-10954
▁lover	-10955
▁seven	-10956
KITCHEN	-10957
▁APPEAL	-10958
▁Trails	-10959
▁adults	-10960
▁rarely	-10961
▁refrig	-10962
▁Fishing	-10963
▁Wyoming	-10964
▁pillars	-10965
installed	-10966
▁Normandy	-10967
▁commutes	-10968
▁followed	-10969
▁seperate	-10970
ita	-10971
▁IG	-10972
anny	-10973
▁4000	-10974
▁Requ	-10975
▁Snow	-10976
▁gran	-10977
lywood	-10978
purpose	-10979
recessed	-10980
▁Wantage	-10981
▁Overlook	-10982
▁drainage	-10983
▁knocking	-10984
▁APPLIANCE	-10985
▁Belvidere	-10986
▁Jamesburg	-10987
▁Sophistic	-10988
▁stylishly	-10989
.3	-10990
VED	-10991
ued	-10992
ager	-10993
bine	-10994
▁11/	-10995
▁301	-10996
▁ADJ	-10997
▁Pot	-10998
cliff	-10999
▁Mint	-11000
▁exem	-11001
UTTERS	-11002
atural	-11003
▁07506	-11004
▁07849	-11005
▁08221	-11006
▁bliss	-11007
crafted	-11008
losures	-11009
▁(2016)	-11010
▁Fisher	-11011
▁Surrey	-11012
▁venues	-11013
Property	-11014
▁Realtor	-11015
▁amongst	-11016
▁combine	-11017
▁boutique	-11018
▁REDUCTION	-11019
▁hardscape	-11020
▁Basketball	-11021
▁Tranquility	-11022
▁preferences	-11023
ves	-11024
bird	-11025
▁185	-11026
▁188	-11027
▁33,	-11028
▁5.5	-11029
esley	-11030
▁GOOD	-11031
▁Mick	-11032
master	-11033
▁Lions	-11034
▁Vista	-11035
▁draws	-11036
▁sited	-11037
▁Cedars	-11038
▁PANELS	-11039
▁integr	-11040
▁McGuire	-11041
▁allowed	-11042
▁finally	-11043
▁million	-11044
▁rentals	-11045
▁Distance	-11046
▁Kitchens	-11047
▁Frenchtown	-11048
▁Independence	-11049
2-	-11050
!).	-11051
▁($	-11052
RETE	-11053
ader	-11054
oriz	-11055
▁1.8	-11056
▁143	-11057
▁IDE	-11058
▁SAC	-11059
under	-11060
▁2004	-11061
▁Marm	-11062
▁VILL	-11063
etcong	-11064
▁08106	-11065
▁08535	-11066
▁PAINT	-11067
Wantage	-11068
covered	-11069
ycamore	-11070
▁reserv	-11071
▁smooth	-11072
▁(2019).	-11073
▁colored	-11074
▁routine	-11075
▁Woodbine	-11076
▁Insulated	-11077
▁Versatile	-11078
▁detailing	-11079
▁Disclosure	-11080
unk	-11081
▁ba	-11082
-95,	-11083
oves	-11084
pany	-11085
west	-11086
▁50'	-11087
acity	-11088
arian	-11089
avern	-11090
itime	-11091
▁Auth	-11092
▁Bids	-11093
▁LIFE	-11094
▁Wald	-11095
▁addl	-11096
▁apply	-11097
▁glory	-11098
▁attach	-11099
▁Reserve	-11100
▁SETTING	-11101
▁RECEIVED	-11102
▁specific	-11103
▁EXCELLENT	-11104
▁UTILITIES	-11105
▁WEDNESDAY	-11106
▁purchaser	-11107
▁Excellence	-11108
▁businesses	-11109
▁accentuated	-11110
your	-11111
▁Aid	-11112
abled	-11113
▁AWAY	-11114
▁FANS	-11115
▁PICK	-11116
▁RESP	-11117
▁Semi	-11118
▁econ	-11119
▁lamp	-11120
▁Downs	-11121
▁exude	-11122
▁BEAUTY	-11123
▁Fencing	-11124
▁preview	-11125
▁started	-11126
andeliers	-11127
beautiful	-11128
▁Bayfront	-11129
▁Timeless	-11130
▁delivery	-11131
▁barbeques	-11132
▁Titusville	-11133
▁completion	-11134
▁gracefully	-11135
▁homebuyers	-11136
Come	-11137
both	-11138
lick	-11139
▁197	-11140
▁24'	-11141
▁306	-11142
▁321	-11143
▁Elk	-11144
▁zip	-11145
chair	-11146
lease	-11147
stall	-11148
▁SUND	-11149
▁hwys	-11150
Shower	-11151
WASHER	-11152
▁07112	-11153
▁08066	-11154
▁08889	-11155
▁Legal	-11156
▁OWNED	-11157
▁Sales	-11158
▁docks	-11159
▁weeks	-11160
▁Parlin	-11161
▁America	-11162
▁Marmora	-11163
▁SHOWING	-11164
▁Weather	-11165
▁livable	-11166
▁surpris	-11167
▁November	-11168
▁Wainscot	-11169
▁surprised	-11170
▁Renovation	-11171
.!	-11172
APP	-11173
Aid	-11174
Town	-11175
lton	-11176
oker	-11177
rich	-11178
▁146	-11179
▁BSM	-11180
▁REP	-11181
atoga	-11182
entle	-11183
icing	-11184
orage	-11185
there	-11186
▁Barb	-11187
▁Bert	-11188
▁ELEG	-11189
awless	-11190
ilings	-11191
topped	-11192
▁07050	-11193
▁Owned	-11194
▁Martin	-11195
▁STAIRS	-11196
▁soaker	-11197
▁Complex	-11198
▁January	-11199
▁SELLERS	-11200
▁Systems	-11201
▁Englewood	-11202
▁Mickleton	-11203
▁literally	-11204
▁aesthetics	-11205
▁disclosure	-11206
cle	-11207
▁Oh	-11208
NESS	-11209
ilet	-11210
▁12/	-11211
▁sch	-11212
ander	-11213
emont	-11214
organ	-11215
train	-11216
▁CONV	-11217
▁Lynd	-11218
▁ages	-11219
▁ENTER	-11220
▁crowd	-11221
urfaced	-11222
▁Before	-11223
▁Gutter	-11224
▁adjust	-11225
▁aspect	-11226
▁dreamy	-11227
▁(2014),	-11228
▁Grounds	-11229
▁supplies	-11230
▁uniquely	-11231
▁SPRINKLER	-11232
▁decorator	-11233
▁expanding	-11234
▁incentives	-11235
▁Renovations	-11236
▁arrangements	-11237
ENCE	-11238
▁Poh	-11239
▁pkg	-11240
world	-11241
▁$500	-11242
▁2400	-11243
▁Ston	-11244
▁hide	-11245
▁08270	-11246
▁Arbor	-11247
▁bound	-11248
▁youre	-11249
▁Jetted	-11250
▁Steven	-11251
▁Emerson	-11252
▁LAMINATE	-11253
▁Saratoga	-11254
▁Windward	-11255
▁Bedminster	-11256
▁Tremendous	-11257
▁compressor	-11258
▁$9	-11259
care	-11260
▁307	-11261
▁Jam	-11262
assau	-11263
▁DISH	-11264
▁HOUS	-11265
▁WANT	-11266
▁mean	-11267
▁sust	-11268
DINING	-11269
▁08078	-11270
▁ACTIV	-11271
▁Clubs	-11272
▁Robin	-11273
▁Skill	-11274
igantic	-11275
▁Nassau	-11276
▁UNPACK	-11277
▁boosts	-11278
▁reduce	-11279
▁jogging	-11280
▁CONCRETE	-11281
▁Edgewood	-11282
▁GENEROUS	-11283
▁MAGNIFIC	-11284
▁Secluded	-11285
▁bayfront	-11286
▁crabbing	-11287
▁flooding	-11288
▁Pohatcong	-11289
▁exception	-11290
▁groceries	-11291
▁laminated	-11292
▁presenting	-11293
▁workmanship	-11294
sw	-11295
-28	-11296
NED	-11297
▁Kw	-11298
▁151	-11299
▁302	-11300
▁31,	-11301
▁312	-11302
▁Span	-11303
▁face	-11304
▁soap	-11305
agined	-11306
except	-11307
isible	-11308
▁Buses	-11309
▁raise	-11310
▁Adding	-11311
▁Juliet	-11312
▁Making	-11313
▁Redone	-11314
▁SUNDAY	-11315
Finished	-11316
▁(2021).	-11317
▁Wayside	-11318
▁Winning	-11319
▁termite	-11320
▁DESIGNER	-11321
▁Kingwood	-11322
▁colorful	-11323
HE	-11324
ann	-11325
tra	-11326
Jill	-11327
obby	-11328
▁LBP	-11329
Brand	-11330
uation	-11331
▁(2010	-11332
▁07001	-11333
▁Georg	-11334
▁HEART	-11335
▁inner	-11336
▁minor	-11337
▁spind	-11338
▁sweat	-11339
Maurice	-11340
▁Create	-11341
▁Taylor	-11342
▁Several	-11343
▁bilevel	-11344
▁captures	-11345
▁facility	-11346
▁generate	-11347
▁Wedgewood	-11348
▁presented	-11349
-8	-11350
DER	-11351
ERO	-11352
URS	-11353
ads	-11354
ersh	-11355
road	-11356
smnt	-11357
tors	-11358
▁309	-11359
▁Dor	-11360
▁Rac	-11361
▁web	-11362
▁LOAD	-11363
▁pure	-11364
▁08805	-11365
▁Bucks	-11366
▁Devon	-11367
▁Moyer	-11368
▁brook	-11369
▁mixed	-11370
▁COURTS	-11371
▁GARDEN	-11372
▁RAISED	-11373
▁Flowing	-11374
▁Gardner	-11375
▁replace	-11376
▁Maritime	-11377
▁Stations	-11378
▁Steinert	-11379
▁Gatherings	-11380
▁transitions	-11381
No	-11382
On	-11383
EET	-11384
oord	-11385
▁157	-11386
▁314	-11387
▁cub	-11388
▁PULL	-11389
▁mood	-11390
ensack	-11391
idaire	-11392
quartz	-11393
▁07758	-11394
▁SPLIT	-11395
▁member	-11396
▁entirely	-11397
▁wardrobe	-11398
▁Gibbstown	-11399
▁STAIRCASE	-11400
▁hi	-11401
Heat	-11402
IBIL	-11403
azon	-11404
fill	-11405
▁1.3	-11406
▁156	-11407
▁Lee	-11408
▁Sav	-11409
▁fir	-11410
▁lap	-11411
MENTS	-11412
essel	-11413
▁KIND	-11414
▁TAKE	-11415
pering	-11416
▁07702	-11417
▁07801	-11418
▁PRIDE	-11419
erviews	-11420
tingham	-11421
▁asking	-11422
▁Longport	-11423
▁Sycamore	-11424
▁introduc	-11425
▁wineries	-11426
▁Abundance	-11427
▁electronic	-11428
▁counterspace	-11429
udd	-11430
▁Me	-11431
▁Ry	-11432
abor	-11433
ecor	-11434
iter	-11435
ploy	-11436
▁80.	-11437
▁SOC	-11438
▁Vir	-11439
▁pop	-11440
paper	-11441
▁1200	-11442
▁ELEV	-11443
▁Greg	-11444
▁flor	-11445
▁outs	-11446
▁sour	-11447
▁08344	-11448
▁EFFIC	-11449
▁Sleep	-11450
▁UPPER	-11451
▁chore	-11452
▁stain	-11453
cooling	-11454
▁magical	-11455
▁INVESTOR	-11456
▁Victoria	-11457
▁fussiest	-11458
▁Composite	-11459
▁naturally	-11460
▁Du	-11461
HING	-11462
acts	-11463
arch	-11464
▁153	-11465
▁228	-11466
▁311	-11467
▁riv	-11468
ATELY	-11469
crown	-11470
desac	-11471
resso	-11472
▁Feet	-11473
▁Mirr	-11474
ENANCE	-11475
spouts	-11476
▁07823	-11477
▁08730	-11478
▁BDRMS	-11479
▁Chefs	-11480
▁Inlet	-11481
▁Menlo	-11482
▁eight	-11483
ebruary	-11484
plement	-11485
▁dryers	-11486
▁Commute	-11487
▁benches	-11488
▁folding	-11489
▁hickory	-11490
▁remains	-11491
▁OFFERING	-11492
▁Seamless	-11493
▁cocktail	-11494
▁visiting	-11495
ota	-11496
▁#2	-11497
arts	-11498
used	-11499
▁168	-11500
▁316	-11501
▁317	-11502
▁DIY	-11503
Ready	-11504
▁....	-11505
▁cove	-11506
ropark	-11507
▁07092	-11508
▁07508	-11509
▁08086	-11510
▁08091	-11511
▁carry	-11512
▁moved	-11513
▁supply	-11514
▁todays	-11515
▁brushed	-11516
▁driving	-11517
▁seconds	-11518
iminating	-11519
▁Skillman	-11520
▁majority	-11521
▁Hackensack	-11522
NG	-11523
imp	-11524
ARCH	-11525
ving	-11526
▁CCO	-11527
▁Hem	-11528
icine	-11529
▁Cand	-11530
▁hats	-11531
etooth	-11532
thaven	-11533
▁#351-	-11534
▁(2025	-11535
▁07876	-11536
Central	-11537
central	-11538
ovement	-11539
ressure	-11540
▁forest	-11541
▁gravel	-11542
▁nickel	-11543
▁utmost	-11544
▁walkup	-11545
▁NOTHING	-11546
▁Seating	-11547
▁becomes	-11548
▁confirm	-11549
▁hangout	-11550
▁opulent	-11551
▁stunner	-11552
▁functions	-11553
00/	-11554
itz	-11555
rel	-11556
▁1/	-11557
▁154	-11558
▁23,	-11559
▁324	-11560
▁325	-11561
▁gut	-11562
ogram	-11563
raped	-11564
▁CURB	-11565
▁nine	-11566
▁2-1/2	-11567
BERLINE	-11568
markets	-11569
▁remove	-11570
▁regular	-11571
cathedral	-11572
occupants	-11573
▁Seashore	-11574
▁TOWNSHIP	-11575
▁capacity	-11576
▁Birchwood	-11577
3.	-11578
DEN	-11579
One	-11580
UGH	-11581
iny	-11582
iti	-11583
▁Fe	-11584
tray	-11585
▁158	-11586
▁189	-11587
▁232	-11588
▁404	-11589
▁TOO	-11590
could	-11591
enior	-11592
▁Balt	-11593
▁Vine	-11594
▁Wake	-11595
▁file	-11596
anging	-11597
height	-11598
▁Miles	-11599
▁Speed	-11600
▁colle	-11601
illiant	-11602
▁Virgin	-11603
▁stalls	-11604
luetooth	-11605
▁Gregory	-11606
▁VILLAGE	-11607
▁plywood	-11608
▁serious	-11609
▁retreats	-11610
▁sections	-11611
Additional	-11612
▁Frankford	-11613
▁Lyndhurst	-11614
▁exploring	-11615
▁Frigidaire	-11616
▁completing	-11617
▁Woodburning	-11618
▁distinguished	-11619
▁refrigerators	-11620
EE	-11621
Ut	-11622
▁$6	-11623
▁Ul	-11624
HIGH	-11625
OUNT	-11626
fall	-11627
▁$3,	-11628
▁159	-11629
▁227	-11630
▁229	-11631
▁Dix	-11632
▁Gal	-11633
▁Mom	-11634
▁upl	-11635
ATURE	-11636
mable	-11637
▁Flat	-11638
▁body	-11639
▁07421	-11640
▁08514	-11641
▁Never	-11642
▁PRIST	-11643
▁appls	-11644
GRANITE	-11645
freezer	-11646
▁Chapel	-11647
▁SCREEN	-11648
▁Danbury	-11649
▁Sherman	-11650
▁chicken	-11651
togethers	-11652
▁February	-11653
▁Cresthaven	-11654
▁Originally	-11655
▁destination	-11656
▁METICULOUSLY	-11657
▁enhancements	-11658
ze	-11659
ROW	-11660
▁Og	-11661
FULL	-11662
Just	-11663
unds	-11664
yles	-11665
▁BET	-11666
▁Bth	-11667
▁Ski	-11668
▁Tow	-11669
▁fpl	-11670
ikset	-11671
inley	-11672
▁Bsmt	-11673
▁Clar	-11674
eryear	-11675
▁07063	-11676
▁07424	-11677
▁Shady	-11678
▁scale	-11679
▁MARBLE	-11680
▁lifest	-11681
▁report	-11682
▁Belmont	-11683
esteryear	-11684
▁Majestic	-11685
▁comprised	-11686
▁DISHWASHER	-11687
▁KitchenAid	-11688
▁Nottingham	-11689
▁boardwalks	-11690
▁interested	-11691
▁MAINTENANCE	-11692
▁strategically	-11693
17.	-11694
▁313	-11695
▁401	-11696
▁Hole	-11697
▁hunt	-11698
rative	-11699
▁07732	-11700
▁MONTH	-11701
▁applic	-11702
▁buffer	-11703
▁matter	-11704
▁offset	-11705
▁washed	-11706
▁Kwikset	-11707
▁Sunsets	-11708
▁Bradford	-11709
▁OWNERSHIP	-11710
▁Palladium	-11711
▁Practical	-11712
▁MAGNIFICENT	-11713
76	-11714
eds	-11715
▁7,	-11716
▁IQ	-11717
gest	-11718
keep	-11719
rans	-11720
▁235	-11721
▁260	-11722
▁Dam	-11723
▁Gor	-11724
▁KEY	-11725
aging	-11726
croft	-11727
▁2005	-11728
▁SALT	-11729
▁Shar	-11730
▁bays	-11731
▁scon	-11732
itable	-11733
ricane	-11734
washer	-11735
▁07410	-11736
▁08530	-11737
▁Storm	-11738
▁Table	-11739
▁blown	-11740
▁cooks	-11741
▁stock	-11742
▁SOCIAL	-11743
▁dollar	-11744
▁knotty	-11745
▁perman	-11746
▁Carneys	-11747
▁needing	-11748
▁sustain	-11749
▁underst	-11750
▁PRISTINE	-11751
Pilesgrove	-11752
▁ATTENTION	-11753
▁Floorplan	-11754
▁Inspection	-11755
▁certification	-11756
ns	-11757
but	-11758
/1.5	-11759
BALL	-11760
LIKE	-11761
▁AHS	-11762
sewer	-11763
split	-11764
▁1700	-11765
▁Meet	-11766
▁POND	-11767
▁Sear	-11768
▁TRAY	-11769
▁slab	-11770
Double	-11771
UGHTER	-11772
▁07874	-11773
▁Plush	-11774
▁coord	-11775
BURNING	-11776
innacle	-11777
iparian	-11778
▁Eagles	-11779
▁called	-11780
▁factor	-11781
included	-11782
▁Paramus	-11783
▁Glendora	-11784
▁Purchase	-11785
▁Waldwick	-11786
▁presence	-11787
▁Beechwood	-11788
▁Travertine	-11789
▁crawlspace	-11790
▁connections	-11791
/29	-11792
OTT	-11793
AKES	-11794
IGIN	-11795
acor	-11796
lots	-11797
▁167	-11798
▁18-	-11799
▁Bry	-11800
▁LAY	-11801
loved	-11802
useum	-11803
winds	-11804
▁2007	-11805
▁2200	-11806
▁Mstr	-11807
▁OVEN	-11808
▁coop	-11809
Formal	-11810
ORMOUS	-11811
teries	-11812
▁08036	-11813
▁Hazel	-11814
▁doing	-11815
▁terms	-11816
forming	-11817
▁(2024)	-11818
▁Knocks	-11819
▁MOTHER	-11820
▁Parker	-11821
▁epitom	-11822
▁leases	-11823
▁shores	-11824
▁(2022).	-11825
▁However	-11826
▁Respons	-11827
▁bayside	-11828
▁Shelving	-11829
▁stepping	-11830
▁weekends	-11831
▁Horseshoe	-11832
▁Riverview	-11833
▁breweries	-11834
▁lifestyles	-11835
KW	-11836
MS	-11837
END	-11838
die	-11839
roof	-11840
▁McK	-11841
▁dyn	-11842
anack	-11843
ority	-11844
▁FEES	-11845
▁Used	-11846
▁fell	-11847
▁bidet	-11848
▁Amazon	-11849
▁RESORT	-11850
▁motion	-11851
occupied	-11852
▁RESPONS	-11853
▁Wharton	-11854
▁exuding	-11855
▁Oversize	-11856
▁portable	-11857
▁Billiards	-11858
▁Immediate	-11859
▁Silestone	-11860
▁adventure	-11861
▁certified	-11862
▁presently	-11863
▁ACTIVITIES	-11864
▁Stillwater	-11865
/27	-11866
ifi	-11867
▁Os	-11868
omin	-11869
▁14'	-11870
▁303	-11871
▁Mul	-11872
▁tur	-11873
gener	-11874
▁COMP	-11875
▁Cars	-11876
URANCE	-11877
▁08560	-11878
▁12:00	-11879
▁envel	-11880
▁shelf	-11881
▁vents	-11882
▁FINISH	-11883
▁Knolls	-11884
▁SEARCH	-11885
▁graces	-11886
▁Boating	-11887
▁Directly	-11888
▁bookcase	-11889
▁Converted	-11890
▁woodlands	-11891
▁guarantees	-11892
▁selections	-11893
▁Englishtown	-11894
▁Wonderfully	-11895
▁chandeliers	-11896
▁availability	-11897
BE	-11898
Fl	-11899
NE	-11900
ADE	-11901
ULAR	-11902
▁318	-11903
▁PAR	-11904
▁Ren	-11905
▁ess	-11906
ading	-11907
▁CERT	-11908
▁REAL	-11909
▁Verm	-11910
▁none	-11911
▁07104	-11912
▁08079	-11913
▁08629	-11914
▁THURS	-11915
▁barbe	-11916
▁compr	-11917
IONALLY	-11918
soaking	-11919
▁EFFICI	-11920
▁Hartsh	-11921
▁latest	-11922
▁NESTLED	-11923
▁WALKOUT	-11924
▁pouring	-11925
▁blooming	-11926
▁TIMBERLINE	-11927
▁Conditioner	-11928
▁multifamily	-11929
▁Immaculately	-11930
▁outbuildings	-11931
125	-11932
NOT	-11933
wah	-11934
▁Cat	-11935
▁Mal	-11936
aries	-11937
endum	-11938
reezy	-11939
▁1600	-11940
▁Draw	-11941
▁Kent	-11942
▁ROAD	-11943
▁Ross	-11944
▁cabs	-11945
▁jump	-11946
▁Carol	-11947
▁OPENS	-11948
Utility	-11949
▁Clevel	-11950
▁button	-11951
▁Carpets	-11952
▁Greeted	-11953
▁basking	-11954
▁layouts	-11955
▁playset	-11956
▁Monogram	-11957
▁barbeque	-11958
▁restrict	-11959
▁Cleveland	-11960
▁confirmed	-11961
▁Kitchenette	-11962
03	-11963
CR	-11964
aff	-11965
▁50-	-11966
▁DIN	-11967
▁Inf	-11968
▁Ply	-11969
▁Sid	-11970
▁led	-11971
olsys	-11972
recre	-11973
▁0760	-11974
▁295.	-11975
▁Mark	-11976
▁Ward	-11977
▁calm	-11978
▁hdwd	-11979
IGINAL	-11980
ablish	-11981
demand	-11982
ective	-11983
▁(2011	-11984
▁08035	-11985
▁2010.	-11986
▁BOCCE	-11987
▁Brent	-11988
▁Burch	-11989
▁Works	-11990
Outdoor	-11991
▁Qolsys	-11992
▁VACANT	-11993
▁Vacuum	-11994
▁caters	-11995
▁reveal	-11996
▁STATION	-11997
▁seaside	-11998
▁COMMUTER	-11999
▁PICTURES	-12000
▁Woodside	-12001
▁actually	-12002
▁coziness	-12003
▁wallpaper	-12004
▁ABSOLUTELY	-12005
▁Interstate	-12006
▁resurfaced	-12007
▁yesteryear	-12008
▁compliments	-12009
▁ASS	-12010
▁Din	-12011
▁tom	-12012
▁tri	-12013
NEWER	-12014
entic	-12015
ongum	-12016
upper	-12017
▁FLOW	-12018
▁Rams	-12019
raised	-12020
▁07306	-12021
▁08230	-12022
▁Crawl	-12023
▁Theat	-12024
▁UNITS	-12025
reement	-12026
▁Burner	-12027
▁flight	-12028
▁Harvard	-12029
▁reveals	-12030
▁Shutters	-12031
▁Veterans	-12032
▁Metropark	-12033
▁Packanack	-12034
▁approvals	-12035
▁evergreen	-12036
▁fieldstone	-12037
▁Shuffleboard	-12038
----------------	-12039
ref	-12040
sur	-12041
▁Hw	-12042
hope	-12043
mill	-12044
ovet	-12045
▁Dar	-12046
orney	-12047
umont	-12048
▁Thor	-12049
▁gard	-12050
▁gaze	-12051
▁07028	-12052
▁faced	-12053
▁schem	-12054
▁BLOCKS	-12055
▁Navien	-12056
▁bathrm	-12057
▁buying	-12058
▁decent	-12059
▁gentle	-12060
▁heaven	-12061
▁tandem	-12062
▁Shongum	-12063
▁essence	-12064
▁wanting	-12065
▁ENORMOUS	-12066
▁clawfoot	-12067
▁flawless	-12068
▁Appointed	-12069
▁Authority	-12070
▁INSURANCE	-12071
▁flagstone	-12072
▁socializing	-12073
AME	-12074
AMP	-12075
aus	-12076
hers	-12077
onet	-12078
▁164	-12079
▁179	-12080
▁Soc	-12081
▁hat	-12082
atial	-12083
bound	-12084
econd	-12085
power	-12086
▁Roth	-12087
▁WHAT	-12088
▁gain	-12089
▁text	-12090
ttiest	-12091
▁07836	-12092
▁Capri	-12093
▁SOUTH	-12094
▁exits	-12095
▁indul	-12096
▁wheel	-12097
▁Person	-12098
▁Stream	-12099
▁enters	-12100
▁ventil	-12101
▁Stamped	-12102
▁Turnkey	-12103
▁Carefree	-12104
▁Stanhope	-12105
▁ductwork	-12106
▁splendid	-12107
▁SKYLIGHTS	-12108
restaurants	-12109
▁reimagined	-12110
▁Improvements	-12111
LR	-12112
Qu	-12113
ERG	-12114
▁IF	-12115
izer	-12116
mers	-12117
▁18.	-12118
▁519	-12119
▁Alp	-12120
▁Fee	-12121
▁Kay	-12122
Light	-12123
veled	-12124
▁07204	-12125
▁08801	-12126
▁1000,	-12127
▁Dacor	-12128
▁Heron	-12129
▁Tamar	-12130
▁ponds	-12131
▁APPROX	-12132
▁Mahwah	-12133
▁vessel	-12134
▁Belgian	-12135
▁Carrera	-12136
▁Enclave	-12137
▁Vermont	-12138
▁barrier	-12139
▁midtown	-12140
▁December	-12141
▁ORIGINAL	-12142
▁Plymouth	-12143
▁radiates	-12144
▁selected	-12145
▁Briarwood	-12146
▁CARPETING	-12147
▁Represent	-12148
▁arrangement	-12149
▁generational	-12150
ORK	-12151
▁5+	-12152
▁hr	-12153
bers	-12154
ding	-12155
done	-12156
oice	-12157
▁1.7	-12158
▁410	-12159
▁GET	-12160
▁job	-12161
▁$200	-12162
▁Join	-12163
▁LARG	-12164
▁Whis	-12165
▁07041	-12166
▁Begin	-12167
▁Comes	-12168
▁pergo	-12169
▁Battle	-12170
▁actual	-12171
eaturing	-12172
▁(2020).	-12173
▁ESTATES	-12174
▁Immerse	-12175
▁website	-12176
potential	-12177
▁Coventry	-12178
▁gardener	-12179
▁basements	-12180
▁stunningly	-12181
CEL	-12182
HUD	-12183
IRD	-12184
▁(8	-12185
/24.	-12186
rell	-12187
▁1.2	-12188
▁226	-12189
▁340	-12190
▁Jac	-12191
▁Unb	-12192
▁287.	-12193
▁MINT	-12194
▁fact	-12195
▁trey	-12196
▁07208	-12197
▁08223	-12198
▁08525	-12199
▁POOLS	-12200
▁START	-12201
▁Seven	-12202
▁Slate	-12203
▁Thank	-12204
▁arbor	-12205
▁usage	-12206
▁Border	-12207
▁DETAIL	-12208
▁LAYOUT	-12209
▁Nearly	-12210
Location	-12211
▁FITNESS	-12212
▁Marshall	-12213
▁accuracy	-12214
▁Midstream	-12215
▁organizer	-12216
▁Huntington	-12217
▁equestrian	-12218
▁Mountainview	-12219
▁supermarkets	-12220
................	-12221
08	-12222
OG	-12223
LAR	-12224
▁KE	-12225
▁(3)	-12226
▁245	-12227
▁319	-12228
▁Bes	-12229
▁ham	-12230
▁hyd	-12231
▁tel	-12232
▁200-	-12233
▁TRIM	-12234
Garage	-12235
brooke	-12236
▁08068	-12237
▁David	-12238
▁Thomp	-12239
▁stool	-12240
etached	-12241
▁FACING	-12242
▁engage	-12243
▁upside	-12244
▁Fixture	-12245
▁Largest	-12246
▁coupled	-12247
▁heights	-12248
▁rounded	-12249
▁culdesac	-12250
▁Grandview	-12251
▁prettiest	-12252
▁solutions	-12253
▁acceptable	-12254
▁wainscotting	-12255
UC	-12256
/42	-12257
IRT	-12258
Ins	-12259
fax	-12260
▁1.4	-12261
▁Fac	-12262
▁Hay	-12263
▁ang	-12264
▁yes	-12265
LIGHT	-12266
▁2009	-12267
▁AIRY	-12268
▁Gray	-12269
▁Past	-12270
▁Tilt	-12271
owners	-12272
▁08515	-12273
▁08611	-12274
▁Alert	-12275
▁IDEAL	-12276
▁Malls	-12277
▁Sonos	-12278
▁audio	-12279
▁bathe	-12280
▁thats	-12281
▁unden	-12282
▁Bedrms	-12283
▁Leased	-12284
▁circle	-12285
ucrative	-12286
▁Starter	-12287
▁possess	-12288
▁Parkview	-12289
▁Provides	-12290
▁Virginia	-12291
▁homework	-12292
▁Alexander	-12293
▁LAKEFRONT	-12294
▁DECORATIVE	-12295
▁sundrenched	-12296
▁transaction	-12297
ano	-12298
-295	-12299
iere	-12300
loft	-12301
▁169	-12302
▁233	-12303
▁350	-12304
▁4.1	-12305
▁415	-12306
▁HSA	-12307
▁Pac	-12308
▁SPA	-12309
ilers	-12310
▁Fast	-12311
▁Prot	-12312
▁SqFt	-12313
addock	-12314
square	-12315
▁07737	-12316
▁2011,	-12317
▁(2015)	-12318
▁POWDER	-12319
▁growth	-12320
▁neatly	-12321
▁ornate	-12322
▁Bridges	-12323
▁IMPRESS	-12324
▁trimmed	-12325
▁Finishes	-12326
▁POSSIBLE	-12327
▁THURSDAY	-12328
▁Thompson	-12329
▁establish	-12330
▁downspouts	-12331
▁epitomizes	-12332
▁Yellowstone	-12333
,2	-12334
ww	-12335
MCA	-12336
See	-12337
cor	-12338
hen	-12339
wet	-12340
▁Pt	-12341
____	-12342
rena	-12343
thur	-12344
▁162	-12345
▁238	-12346
▁406	-12347
▁Ray	-12348
▁din	-12349
IALLY	-12350
▁HIST	-12351
▁wond	-12352
▁Const	-12353
▁Posit	-12354
▁Rough	-12355
▁chute	-12356
▁helps	-12357
▁refer	-12358
catching	-12359
▁Edwards	-12360
▁pleased	-12361
▁skating	-12362
▁spindles	-12363
▁Berkshire	-12364
▁Midstreams	-12365
entertaining	-12366
▁personalized	-12367
-4	-12368
6.	-12369
bs	-12370
GAS	-12371
ody	-12372
IRED	-12373
vale	-12374
▁408	-12375
▁BEL	-12376
▁EXT	-12377
▁TWP	-12378
▁scr	-12379
STORY	-12380
▁1400	-12381
▁Brew	-12382
▁Como	-12383
▁Hawk	-12384
▁LINE	-12385
▁auth	-12386
▁repl	-12387
ESTYLE	-12388
Seller	-12389
elling	-12390
▁07422	-12391
▁07438	-12392
▁07720	-12393
▁07830	-12394
Vaulted	-12395
itation	-12396
▁(2013),	-12397
▁Overall	-12398
▁auction	-12399
▁concern	-12400
▁leveled	-12401
▁rebuild	-12402
▁Dressing	-12403
▁Roseland	-12404
▁intercom	-12405
▁windowed	-12406
▁Brentwood	-12407
▁Fairmount	-12408
▁collection	-12409
▁structural	-12410
▁Wainscoting	-12411
▁Extraordinary	-12412
.4	-12413
UZ	-12414
ZI	-12415
oni	-12416
▁.9	-12417
ACES	-12418
▁177	-12419
▁234	-12420
▁420	-12421
▁FUR	-12422
▁Ice	-12423
▁Lod	-12424
LEVEL	-12425
UTRAL	-12426
ledge	-12427
woods	-12428
▁BOAT	-12429
▁Merr	-12430
▁YMCA	-12431
▁nich	-12432
erries	-12433
icular	-12434
▁07302	-12435
▁07436	-12436
▁Whitt	-12437
▁china	-12438
Private	-12439
▁Lender	-12440
▁Tavern	-12441
▁Toilet	-12442
▁ANOTHER	-12443
▁ELEGANT	-12444
▁FURTHER	-12445
▁Pacific	-12446
▁sconces	-12447
▁Fernwood	-12448
▁direction	-12449
▁reduction	-12450
▁management	-12451
▁Representatives	-12452
50,	-12453
ICS	-12454
hib	-12455
▁Sn	-12456
long	-12457
▁EQU	-12458
▁III	-12459
▁BALL	-12460
▁CONS	-12461
▁Kipp	-12462
▁faux	-12463
▁foli	-12464
▁pall	-12465
▁wast	-12466
▁07403	-12467
▁RANGE	-12468
▁ROUND	-12469
▁Those	-12470
▁depth	-12471
▁Series	-12472
▁buffet	-12473
▁diving	-12474
▁upkeep	-12475
basement	-12476
spacious	-12477
▁Cornell	-12478
▁covering	-12479
▁tilework	-12480
▁Gladstone	-12481
▁according	-12482
▁contained	-12483
▁lucrative	-12484
▁permanent	-12485
▁showcased	-12486
/19	-12487
BED	-12488
col	-12489
▁7.	-12490
UZZI	-12491
▁323	-12492
▁424	-12493
▁501	-12494
▁BAL	-12495
herst	-12496
imals	-12497
▁Anth	-12498
▁Chic	-12499
▁Dart	-12500
▁Week	-12501
Season	-12502
arming	-12503
▁08059	-12504
▁Roomy	-12505
▁SWEET	-12506
▁magic	-12507
Perfect	-12508
itution	-12509
▁Common	-12510
▁Murray	-12511
▁Retire	-12512
complete	-12513
▁Amherst	-12514
▁measure	-12515
▁minimum	-12516
▁pricing	-12517
▁treated	-12518
Fireplace	-12519
▁EXTERIOR	-12520
▁Flexible	-12521
▁Longview	-12522
▁cookouts	-12523
▁gigantic	-12524
additional	-12525
▁Gibbsboro	-12526
▁particular	-12527
conditioning	-12528
POR	-12529
aph	-12530
egu	-12531
MOST	-12532
bdrm	-12533
fire	-12534
▁152	-12535
▁BRS	-12536
▁Che	-12537
▁myr	-12538
▁pan	-12539
ILLED	-12540
▁000+	-12541
▁2-10	-12542
▁Anch	-12543
▁ADDED	-12544
▁Lenox	-12545
▁STATE	-12546
▁overf	-12547
▁racks	-12548
▁remot	-12549
▁reput	-12550
▁shady	-12551
ustrial	-12552
▁Mechan	-12553
▁hooked	-12554
▁longer	-12555
▁recept	-12556
▁source	-12557
▁Feature	-12558
▁Stevens	-12559
▁UTILITY	-12560
▁changes	-12561
▁florida	-12562
▁griddle	-12563
▁heading	-12564
▁woodland	-12565
▁Ascending	-12566
▁Landscape	-12567
▁Municipal	-12568
▁continuous	-12569
▁staycation	-12570
ma	-12571
OLL	-12572
▁HC	-12573
ARED	-12574
Back	-12575
ONEY	-12576
oans	-12577
oses	-12578
▁15'	-12579
▁161	-12580
▁405	-12581
▁AWN	-12582
▁Few	-12583
▁GAF	-12584
▁HOL	-12585
▁Rms	-12586
▁Roe	-12587
▁STR	-12588
arent	-12589
oaded	-12590
orrow	-12591
vinyl	-12592
▁burn	-12593
▁mead	-12594
▁sacr	-12595
ACUZZI	-12596
OFFICE	-12597
▁07202	-12598
▁07206	-12599
▁08049	-12600
▁BEDRM	-12601
▁Benef	-12602
▁Organ	-12603
▁PARKS	-12604
▁retro	-12605
▁snack	-12606
amental	-12607
▁PICKLE	-12608
▁Stroll	-12609
▁Superb	-12610
▁assume	-12611
▁scheme	-12612
▁changed	-12613
▁foliage	-12614
▁passing	-12615
▁shining	-12616
▁Serenity	-12617
▁woodstove	-12618
▁Membership	-12619
FI	-12620
YM	-12621
CNJ	-12622
eph	-12623
▁(7	-12624
▁6+	-12625
▁mi	-12626
BUIL	-12627
FORT	-12628
Huge	-12629
idel	-12630
prop	-12631
pted	-12632
▁30'	-12633
▁411	-12634
▁412	-12635
▁Jun	-12636
▁Zoo	-12637
/2019	-12638
clean	-12639
ieces	-12640
oping	-12641
plied	-12642
stige	-12643
▁Curt	-12644
▁Walt	-12645
▁dish	-12646
▁meas	-12647
▁ston	-12648
forced	-12649
▁07018	-12650
▁Drain	-12651
▁Forge	-12652
▁SATUR	-12653
▁knobs	-12654
▁snugg	-12655
ituated	-12656
natural	-12657
onshire	-12658
▁Peters	-12659
▁action	-12660
▁bathes	-12661
▁cooled	-12662
▁rights	-12663
▁Hemlock	-12664
▁battery	-12665
▁calming	-12666
▁promise	-12667
bblestone	-12668
▁Previous	-12669
▁Resources	-12670
▁abatement	-12671
▁requested	-12672
▁scheduled	-12673
▁Meadowbrook	-12674
▁surprisingly	-12675
Own	-12676
ael	-12677
ogn	-12678
oyd	-12679
▁po	-12680
IONS	-12681
poke	-12682
▁0.5	-12683
▁MIC	-12684
▁Pol	-12685
▁eco	-12686
paver	-12687
▁INSP	-12688
▁Know	-12689
▁Stur	-12690
agonal	-12691
▁08056	-12692
▁BACKS	-12693
▁reloc	-12694
▁stuff	-12695
uscious	-12696
▁Filter	-12697
▁Galley	-12698
▁compon	-12699
▁Baronet	-12700
▁Housing	-12701
▁QUALITY	-12702
▁casinos	-12703
▁islands	-12704
▁planted	-12705
▁plaster	-12706
▁quietly	-12707
ensington	-12708
▁SATURDAY	-12709
▁accesses	-12710
▁canoeing	-12711
▁pressure	-12712
▁theaters	-12713
humidifier	-12714
▁LIFESTYLE	-12715
▁LUXURIOUS	-12716
▁soapstone	-12717
▁Whispering	-12718
▁functioning	-12719
Fr	-12720
Rt	-12721
nb	-12722
18.	-12723
ERC	-12724
aim	-12725
▁WW	-12726
oral	-12727
vest	-12728
▁330	-12729
▁407	-12730
▁Bob	-12731
▁Fal	-12732
alone	-12733
▁DUAL	-12734
▁Fine	-12735
▁JOIN	-12736
▁dues	-12737
▁ship	-12738
▁07452	-12739
▁2011.	-12740
▁BOARD	-12741
▁Horiz	-12742
▁Pearl	-12743
▁Rehab	-12744
▁SCHED	-12745
▁dance	-12746
▁Dayton	-12747
▁Hearth	-12748
▁Ramsey	-12749
▁attend	-12750
▁handle	-12751
▁lowest	-12752
▁soaked	-12753
▁stoned	-12754
▁Carrara	-12755
▁Program	-12756
▁Richard	-12757
▁archway	-12758
▁remarks	-12759
▁satisfy	-12760
oversized	-12761
▁Business	-12762
▁Rosewood	-12763
▁brilliant	-12764
▁resistant	-12765
▁Pickleball	-12766
▁sensational	-12767
▁Constitution	-12768
ki	-12769
▁Ow	-12770
▁fp	-12771
lymp	-12772
part	-12773
▁COV	-12774
▁USE	-12775
▁VIP	-12776
▁Was	-12777
▁aff	-12778
▁net	-12779
▁rug	-12780
erfly	-12781
▁Bear	-12782
▁Brid	-12783
▁Spot	-12784
▁tool	-12785
▁wire	-12786
▁07032	-12787
▁07035	-12788
▁Barry	-12789
▁Money	-12790
▁exist	-12791
▁AROUND	-12792
▁Beaver	-12793
▁Fourth	-12794
▁church	-12795
attached	-12796
▁banister	-12797
▁catching	-12798
▁obtained	-12799
riminating	-12800
▁Yorktowne	-12801
▁Buttonwood	-12802
▁assessment	-12803
▁gorgeously	-12804
▁installing	-12805
8.	-12806
PK	-12807
BRs	-12808
quo	-12809
▁IR	-12810
IATE	-12811
Lake	-12812
▁$5,	-12813
▁409	-12814
▁Vol	-12815
▁plu	-12816
ockey	-12817
▁2300	-12818
▁EACH	-12819
▁Hvac	-12820
▁Moen	-12821
▁ROUT	-12822
▁Trek	-12823
▁dogs	-12824
▁envy	-12825
FAMILY	-12826
modern	-12827
▁08551	-12828
▁CHECK	-12829
▁CLUBS	-12830
▁Lease	-12831
▁Spark	-12832
▁Terms	-12833
▁alley	-12834
▁elbow	-12835
▁heavy	-12836
▁hutch	-12837
Storage	-12838
counter	-12839
seating	-12840
▁Autumn	-12841
▁INCOME	-12842
▁SUBMIT	-12843
▁Suites	-12844
▁breezy	-12845
▁jersey	-12846
▁COMFORT	-12847
▁NEUTRAL	-12848
▁capital	-12849
▁damaged	-12850
▁increase	-12851
▁Oceanaire	-12852
▁estimated	-12853
▁Kensington	-12854
▁illuminates	-12855
▁improvement	-12856
▁illuminating	-12857
.(	-12858
.''	-12859
OOT	-12860
▁8,	-12861
HEAD	-12862
aine	-12863
asty	-12864
boat	-12865
huge	-12866
ples	-12867
rend	-12868
▁IMP	-12869
▁Nyc	-12870
▁mes	-12871
oxide	-12872
point	-12873
▁ADOR	-12874
▁Bald	-12875
▁Mini	-12876
▁Rise	-12877
▁Shef	-12878
▁stat	-12879
▁word	-12880
INGTON	-12881
market	-12882
selves	-12883
▁fired	-12884
▁funds	-12885
▁lives	-12886
▁loves	-12887
▁spill	-12888
erfalls	-12889
ociated	-12890
painted	-12891
▁Dumont	-12892
▁Having	-12893
▁Mirror	-12894
▁Travel	-12895
▁deeded	-12896
▁spirit	-12897
▁(2012),	-12898
▁Bedford	-12899
▁Perched	-12900
▁animals	-12901
▁bonuses	-12902
▁meeting	-12903
▁repaved	-12904
▁annually	-12905
▁arteries	-12906
▁controls	-12907
▁handyman	-12908
▁Sheffield	-12909
▁depending	-12910
proportioned	-12911
hes	-12912
EDAR	-12913
utes	-12914
▁237	-12915
▁328	-12916
▁520	-12917
▁Jet	-12918
FFORD	-12919
ption	-12920
▁$10,	-12921
▁DEAL	-12922
▁butt	-12923
▁foam	-12924
▁luxe	-12925
▁ring	-12926
▁tack	-12927
omatic	-12928
▁07009	-12929
▁08084	-12930
▁AGENT	-12931
▁CEDAR	-12932
▁addtl	-12933
▁fixed	-12934
▁colder	-12935
▁passed	-12936
▁(2018).	-12937
▁Quinton	-12938
▁pattern	-12939
▁sailing	-12940
▁Mulberry	-12941
▁Seaville	-12942
▁homesite	-12943
▁palatial	-12944
▁appraisal	-12945
▁pleasantly	-12946
▁undeniable	-12947
▁RESPONSIBLE	-12948
lc	-12949
End	-12950
bth	-12951
mon	-12952
▁.8	-12953
▁jo	-12954
ILLE	-12955
Make	-12956
dual	-12957
ereo	-12958
tone	-12959
ycle	-12960
▁(10	-12961
▁40'	-12962
▁425	-12963
▁BOM	-12964
▁FAM	-12965
▁twp	-12966
atten	-12967
fting	-12968
▁2100	-12969
▁2800	-12970
▁Cold	-12971
▁FLRS	-12972
▁amus	-12973
▁07512	-12974
▁08738	-12975
▁BILLI	-12976
▁guard	-12977
▁remov	-12978
astreak	-12979
▁BASEBO	-12980
▁Opener	-12981
▁Sports	-12982
▁Sunlit	-12983
▁(2023).	-12984
▁Cooking	-12985
▁JACUZZI	-12986
▁strolls	-12987
▁Montague	-12988
▁football	-12989
▁Hospitals	-12990
▁festivals	-12991
▁permitted	-12992
▁situation	-12993
▁Devonshire	-12994
▁economical	-12995
▁woodworking	-12996
▁homeownership	-12997
▁PROFESSIONALLY	-12998
▁personalization	-12999
ALE	-13000
KEY	-13001
oos	-13002
fact	-13003
flex	-13004
▁516	-13005
▁Lew	-13006
▁Lrg	-13007
▁Ped	-13008
▁WAY	-13009
ACENT	-13010
baths	-13011
oduce	-13012
▁DONE	-13013
▁FEET	-13014
▁Fauc	-13015
▁Tpke	-13016
▁puts	-13017
ANCING	-13018
icense	-13019
ission	-13020
ranged	-13021
reshly	-13022
▁08750	-13023
▁2025.	-13024
▁later	-13025
▁rests	-13026
▁encour	-13027
▁glazed	-13028
itiative	-13029
▁Anthony	-13030
▁DESIRED	-13031
▁implied	-13032
▁washing	-13033
▁Bayberry	-13034
▁shortage	-13035
▁Hollywood	-13036
▁captivate	-13037
▁leathered	-13038
▁containing	-13039
entertainment	-13040
▁CONVENIENTLY	-13041
▁independently	-13042
ta	-13043
ULE	-13044
dry	-13045
phy	-13046
▁CT	-13047
▁ct	-13048
wise	-13049
▁172	-13050
▁504	-13051
▁510	-13052
▁55.	-13053
▁DOW	-13054
▁Jer	-13055
▁bud	-13056
▁kid	-13057
uttle	-13058
▁2700	-13059
▁Ford	-13060
▁Fors	-13061
▁Lets	-13062
▁PRES	-13063
▁PROV	-13064
▁Tenn	-13065
ROWAVE	-13066
▁07069	-13067
▁07107	-13068
▁08065	-13069
▁Makes	-13070
▁Patri	-13071
▁child	-13072
▁tanks	-13073
eatures	-13074
▁Levels	-13075
▁Sleepy	-13076
▁reside	-13077
▁swings	-13078
idential	-13079
shopping	-13080
upgraded	-13081
▁Deliver	-13082
▁Theatre	-13083
▁boaters	-13084
▁pathway	-13085
▁Lawnside	-13086
▁internet	-13087
▁splendor	-13088
▁Seastreak	-13089
▁projector	-13090
▁themselves	-13091
▁masterfully	-13092
EX	-13093
ata	-13094
iad	-13095
rex	-13096
▁AP	-13097
pers	-13098
test	-13099
▁Dim	-13100
brand	-13101
store	-13102
▁1300	-13103
▁Alph	-13104
▁HDWD	-13105
▁SITS	-13106
▁glad	-13107
Inside	-13108
azzoni	-13109
itally	-13110
▁07201	-13111
▁08559	-13112
▁DRIVE	-13113
▁Osbor	-13114
▁Sleek	-13115
▁THIRD	-13116
▁types	-13117
▁Marvin	-13118
▁Points	-13119
▁compet	-13120
▁financ	-13121
▁pallet	-13122
▁reconf	-13123
▁shares	-13124
▁Carrier	-13125
▁cubbies	-13126
▁dynamic	-13127
▁fulfill	-13128
▁venture	-13129
▁Coolidge	-13130
▁POSSIBIL	-13131
▁Transfer	-13132
▁Westmont	-13133
▁planning	-13134
recreation	-13135
▁components	-13136
▁ornamental	-13137
▁riverfront	-13138
▁ENTERTAINMENT	-13139
bnb	-13140
▁EL	-13141
Plus	-13142
apes	-13143
eman	-13144
ises	-13145
onze	-13146
uchy	-13147
vere	-13148
▁244	-13149
▁249	-13150
▁513	-13151
▁517	-13152
▁Joe	-13153
▁lie	-13154
House	-13155
LARGE	-13156
VILLE	-13157
eemed	-13158
▁BSMT	-13159
▁DEAD	-13160
▁FIXT	-13161
▁Kept	-13162
▁Lift	-13163
▁Naut	-13164
▁Proc	-13165
▁Stew	-13166
▁casc	-13167
▁risk	-13168
Please	-13169
amuchy	-13170
marble	-13171
usters	-13172
▁Amish	-13173
▁Avail	-13174
▁FENCE	-13175
▁Going	-13176
▁Grade	-13177
▁MAPLE	-13178
▁SANDY	-13179
▁Thorn	-13180
▁brown	-13181
▁cohes	-13182
▁dress	-13183
▁words	-13184
isteria	-13185
▁Finest	-13186
▁Stores	-13187
▁exists	-13188
▁PARKWAY	-13189
▁Philips	-13190
▁dressed	-13191
▁shelter	-13192
▁ADJACENT	-13193
▁Westlake	-13194
▁Whittier	-13195
▁Allamuchy	-13196
▁coverings	-13197
▁education	-13198
▁separates	-13199
▁discriminating	-13200
BTH	-13201
Ent	-13202
rag	-13203
tag	-13204
▁3%	-13205
ENCY	-13206
ETTE	-13207
OULD	-13208
TOWN	-13209
easy	-13210
otic	-13211
▁(12	-13212
▁15,	-13213
▁163	-13214
▁Arr	-13215
▁Non	-13216
▁rom	-13217
▁sew	-13218
ashed	-13219
decor	-13220
ilton	-13221
usion	-13222
▁2002	-13223
▁FALL	-13224
▁Lang	-13225
▁Sure	-13226
▁Term	-13227
▁Ways	-13228
▁pref	-13229
▁Alpha	-13230
▁HILLS	-13231
▁sidel	-13232
uminous	-13233
▁Curtis	-13234
▁relish	-13235
▁select	-13236
lighting	-13237
▁Bayside	-13238
▁Cooling	-13239
▁Michael	-13240
▁Netcong	-13241
▁REQUEST	-13242
▁SEASONS	-13243
▁beveled	-13244
▁concess	-13245
▁planked	-13246
orchester	-13247
▁paddocks	-13248
▁pastures	-13249
▁tomorrow	-13250
▁authentic	-13251
Bay	-13252
NYC	-13253
elt	-13254
ipe	-13255
irk	-13256
▁(0	-13257
▁MT	-13258
ITES	-13259
OUGH	-13260
OVER	-13261
ahoe	-13262
▁174	-13263
▁176	-13264
▁Adv	-13265
▁Bon	-13266
▁CLG	-13267
▁HWF	-13268
▁Pur	-13269
▁RUN	-13270
▁Weg	-13271
▁har	-13272
▁lad	-13273
ALLAD	-13274
URITY	-13275
akers	-13276
lines	-13277
▁FIVE	-13278
▁STEP	-13279
▁Vinc	-13280
▁feed	-13281
▁tell	-13282
▁went	-13283
▁07450	-13284
▁Power	-13285
▁fires	-13286
▁monit	-13287
closets	-13288
▁AWNING	-13289
▁Accept	-13290
▁Howard	-13291
▁Merion	-13292
▁Stucco	-13293
▁CALLING	-13294
▁Carport	-13295
▁Juniper	-13296
▁loading	-13297
▁EVERYONE	-13298
▁apparent	-13299
▁esteemed	-13300
▁BASEBOARD	-13301
▁Knollwood	-13302
▁invisible	-13303
▁limestone	-13304
▁marvelous	-13305
▁mountains	-13306
▁reclaimed	-13307
▁illuminate	-13308
++	-13309
pad	-13310
▁DU	-13311
ERGY	-13312
aica	-13313
kins	-13314
▁187	-13315
▁505	-13316
▁610	-13317
▁Adm	-13318
▁Alb	-13319
▁OPT	-13320
▁gle	-13321
▁hay	-13322
▁tin	-13323
IKING	-13324
ucket	-13325
▁1100	-13326
▁took	-13327
ifying	-13328
jetted	-13329
lossom	-13330
▁2010,	-13331
▁Accom	-13332
▁Bruce	-13333
▁Raven	-13334
▁Starb	-13335
▁Store	-13336
▁Susan	-13337
▁angle	-13338
▁waste	-13339
itement	-13340
sliding	-13341
▁Atlant	-13342
▁Elmora	-13343
▁Shared	-13344
▁Spaces	-13345
▁paired	-13346
▁Jamaica	-13347
▁SubZero	-13348
▁INVITING	-13349
▁Infinity	-13350
▁Personal	-13351
▁SCREENED	-13352
▁brighten	-13353
▁corridor	-13354
▁hideaway	-13355
▁occasion	-13356
▁digitally	-13357
▁SPRINKLERS	-13358
▁UNFINISHED	-13359
▁Responsible	-13360
USH	-13361
iol	-13362
▁UV	-13363
▁WR	-13364
FORE	-13365
POOL	-13366
oove	-13367
that	-13368
▁178	-13369
▁414	-13370
▁512	-13371
▁601	-13372
▁WET	-13373
▁apr	-13374
▁pub	-13375
erved	-13376
▁202,	-13377
▁3200	-13378
▁BANK	-13379
▁Cong	-13380
▁Pick	-13381
▁VIRT	-13382
▁dent	-13383
ouched	-13384
ubbery	-13385
▁07828	-13386
▁08007	-13387
▁2009,	-13388
▁Creat	-13389
▁DOWNT	-13390
▁Lined	-13391
▁TOTAL	-13392
▁paper	-13393
▁realt	-13394
▁Accent	-13395
▁Costco	-13396
▁Loaded	-13397
▁PURPOS	-13398
▁Palmer	-13399
▁Pebble	-13400
▁gazing	-13401
▁repres	-13402
cabinets	-13403
▁(2017).	-13404
▁Cooktop	-13405
▁Hosting	-13406
▁Redwood	-13407
▁Upscale	-13408
▁amounts	-13409
▁college	-13410
▁decades	-13411
skylights	-13412
▁McKinley	-13413
▁RELAXING	-13414
▁expertly	-13415
▁landlord	-13416
▁luscious	-13417
▁uploaded	-13418
▁PARTIALLY	-13419
▁stonework	-13420
▁surprises	-13421
▁EXCEPTIONAL	-13422
And	-13423
auk	-13424
▁.7	-13425
▁RW	-13426
▁$15	-13427
▁239	-13428
▁270	-13429
▁326	-13430
▁327	-13431
▁750	-13432
▁GYM	-13433
▁MED	-13434
▁Sew	-13435
▁err	-13436
▁lrg	-13437
▁5000	-13438
▁fash	-13439
▁ping	-13440
encies	-13441
endale	-13442
quette	-13443
▁07087	-13444
▁08027	-13445
▁08826	-13446
▁Bocci	-13447
▁NJTPK	-13448
▁Plans	-13449
▁RATED	-13450
▁ident	-13451
▁rainy	-13452
▁vibes	-13453
ployees	-13454
▁Alpine	-13455
▁BALCON	-13456
▁Corpor	-13457
▁ENERGY	-13458
▁Hiking	-13459
▁Recess	-13460
▁Trader	-13461
▁carved	-13462
▁chores	-13463
▁REPAIRS	-13464
▁arrived	-13465
▁filling	-13466
▁hottest	-13467
▁sunbath	-13468
▁DOWNTOWN	-13469
▁Mortgage	-13470
▁Westport	-13471
▁Whitting	-13472
▁enticing	-13473
▁makeover	-13474
jestically	-13475
▁Allenwood	-13476
▁Bertazzoni	-13477
▁familyroom	-13478
▁simplifies	-13479
▁waterviews	-13480
▁Leisuretowne	-13481
UG	-13482
go	-13483
▁=	-13484
reh	-13485
Year	-13486
llis	-13487
load	-13488
only	-13489
▁$12	-13490
▁182	-13491
▁248	-13492
tions	-13493
ubber	-13494
▁!!!!	-13495
▁CARS	-13496
▁Kean	-13497
▁Nich	-13498
▁PHOT	-13499
▁peek	-13500
▁pics	-13501
▁seek	-13502
▁08097	-13503
▁08829	-13504
▁POINT	-13505
▁Weber	-13506
▁rides	-13507
▁warms	-13508
▁AFFORD	-13509
▁HOUSES	-13510
▁Tunnel	-13511
▁define	-13512
▁gently	-13513
▁permit	-13514
▁warmed	-13515
division	-13516
▁Descend	-13517
▁Maurice	-13518
▁Ramtown	-13519
▁Thermal	-13520
▁handles	-13521
▁Brighton	-13522
▁SCHEDULE	-13523
▁Straight	-13524
▁indirect	-13525
▁MICROWAVE	-13526
▁listening	-13527
▁shrubbery	-13528
▁Homeowners	-13529
▁Pilesgrove	-13530
▁Properties	-13531
▁appearance	-13532
▁excitement	-13533
Conveniently	-13534
▁Westminster	-13535
▁Sophisticated	-13536
ira	-13537
sid	-13538
/22.	-13539
ORIC	-13540
Roof	-13541
ilus	-13542
▁255	-13543
▁402	-13544
▁403	-13545
▁Bre	-13546
▁Enh	-13547
sting	-13548
▁Coat	-13549
▁ENDS	-13550
▁Fawn	-13551
▁bott	-13552
▁pier	-13553
▁08092	-13554
▁08886	-13555
▁Night	-13556
▁Would	-13557
▁brass	-13558
▁toned	-13559
▁BEFORE	-13560
▁Gordon	-13561
▁Hazard	-13562
▁broker	-13563
▁calend	-13564
▁cities	-13565
idelines	-13566
▁Newbury	-13567
▁Options	-13568
▁boilers	-13569
▁Everyone	-13570
▁HISTORIC	-13571
▁crafting	-13572
▁Residence	-13573
▁accompany	-13574
▁Dorchester	-13575
▁INSPECTION	-13576
▁barbecuing	-13577
▁preserving	-13578
▁requesting	-13579
▁conditioned	-13580
▁ventilation	-13581
Al	-13582
SF	-13583
Bth	-13584
ado	-13585
▁5%	-13586
▁bk	-13587
/3.5	-13588
PLEX	-13589
▁25'	-13590
▁329	-13591
▁336	-13592
▁508	-13593
▁MDL	-13594
▁1978	-13595
▁2600	-13596
▁Cher	-13597
▁Conv	-13598
▁Mins	-13599
▁Roch	-13600
▁Sign	-13601
▁dont	-13602
▁frig	-13603
▁lack	-13604
▁shoe	-13605
derate	-13606
idding	-13607
▁07444	-13608
▁Coast	-13609
▁Grace	-13610
▁Louis	-13611
▁Peach	-13612
▁Steep	-13613
▁apple	-13614
▁circa	-13615
▁coats	-13616
▁nanny	-13617
▁pipes	-13618
▁thick	-13619
▁campus	-13620
andering	-13621
▁Decking	-13622
▁RANCHER	-13623
▁cleaner	-13624
▁related	-13625
▁ADORABLE	-13626
▁Nautilus	-13627
▁arranged	-13628
▁national	-13629
▁sacrific	-13630
▁FINANCING	-13631
▁induction	-13632
▁inspected	-13633
▁offerings	-13634
▁Positioned	-13635
▁accordingly	-13636
▁developments	-13637
▁complementing	-13638
-$	-13639
WH	-13640
:30	-13641
MAN	-13642
also	-13643
▁10.	-13644
▁332	-13645
▁413	-13646
▁416	-13647
▁421	-13648
▁Env	-13649
▁Jct	-13650
▁roo	-13651
▁tid	-13652
Bonus	-13653
First	-13654
ongue	-13655
▁3500	-13656
▁FAST	-13657
▁Scar	-13658
▁WHEN	-13659
▁cafe	-13660
▁hubs	-13661
▁07093	-13662
▁07103	-13663
▁07419	-13664
▁07501	-13665
▁08029	-13666
▁08518	-13667
▁Arrow	-13668
▁WALLS	-13669
▁Maytag	-13670
▁Pocket	-13671
antucket	-13672
▁outages	-13673
Breakfast	-13674
▁Parkside	-13675
▁Renovate	-13676
▁BILLIARDS	-13677
▁Waterfall	-13678
▁agreement	-13679
▁Allenhurst	-13680
▁Functional	-13681
NO	-13682
PA	-13683
LOC	-13684
/23.	-13685
VING	-13686
hoes	-13687
tons	-13688
▁$16	-13689
▁$18	-13690
▁11'	-13691
▁173	-13692
▁333	-13693
▁450	-13694
▁Pan	-13695
▁RWJ	-13696
▁mob	-13697
▁sof	-13698
inder	-13699
orthy	-13700
▁CURR	-13701
▁Dist	-13702
LIGHTS	-13703
▁AWAIT	-13704
▁Stony	-13705
▁YOUNG	-13706
▁forth	-13707
▁furry	-13708
▁BRIDGE	-13709
▁farmer	-13710
▁herein	-13711
▁lining	-13712
Gorgeous	-13713
Upgraded	-13714
▁Brandon	-13715
▁Norwood	-13716
▁PICTURE	-13717
▁Working	-13718
▁bathing	-13719
▁compreh	-13720
▁instruc	-13721
▁organic	-13722
▁Knowlton	-13723
▁cohesive	-13724
▁Overlooks	-13725
▁Starbucks	-13726
▁Westbrook	-13727
▁hobbyists	-13728
▁measuring	-13729
established	-13730
▁IMPRESSIVE	-13731
▁Treatments	-13732
▁thermopane	-13733
▁sacrificing	-13734
OF	-13735
INC	-13736
ada	-13737
uts	-13738
Play	-13739
igan	-13740
igur	-13741
ques	-13742
▁+/-	-13743
▁15-	-13744
▁27,	-13745
▁275	-13746
▁Ant	-13747
▁Ear	-13748
▁UNT	-13749
ATHER	-13750
ESOME	-13751
cared	-13752
known	-13753
odore	-13754
▁1930	-13755
▁1950	-13756
▁Hasb	-13757
▁Wynd	-13758
▁hear	-13759
▁CLASS	-13760
▁Davis	-13761
▁Franc	-13762
▁IMMED	-13763
▁Sauna	-13764
▁Spray	-13765
▁inlet	-13766
ceramic	-13767
▁Berber	-13768
▁Extras	-13769
▁Listed	-13770
▁Marinas	-13771
▁Notable	-13772
▁closest	-13773
▁defects	-13774
▁restful	-13775
▁PURPOSES	-13776
▁SECURITY	-13777
▁displays	-13778
▁settings	-13779
▁solitude	-13780
▁Bluestone	-13781
▁Hardwoods	-13782
▁Nantucket	-13783
▁Palisades	-13784
▁Quartzite	-13785
▁Insulation	-13786
▁represents	-13787
▁Captivating	-13788
▁practically	-13789
▁requirement	-13790
▁Recreational	-13791
▁i	-13792
AFT	-13793
ORN	-13794
ULK	-13795
len	-13796
▁HG	-13797
date	-13798
pent	-13799
prof	-13800
rand	-13801
soft	-13802
▁$17	-13803
▁335	-13804
▁Abb	-13805
▁BEG	-13806
▁Rev	-13807
VELOP	-13808
ammar	-13809
doors	-13810
▁COST	-13811
▁Perr	-13812
▁cake	-13813
▁wasn	-13814
▁whip	-13815
▁07045	-13816
▁AMPLE	-13817
▁Coral	-13818
▁Defin	-13819
▁STUDY	-13820
▁Brandy	-13821
▁Centre	-13822
▁IMPROV	-13823
▁grease	-13824
▁listen	-13825
▁Centers	-13826
▁Collect	-13827
▁Montauk	-13828
▁WALKWAY	-13829
▁matched	-13830
▁shuffle	-13831
▁stocked	-13832
▁stopper	-13833
▁Elevator	-13834
▁Friendly	-13835
▁Hardware	-13836
▁cultured	-13837
▁planking	-13838
▁planting	-13839
▁surfaces	-13840
▁Sunnyside	-13841
▁creations	-13842
▁inclusive	-13843
▁configured	-13844
00.	-13845
▁(9	-13846
▁Hy	-13847
Park	-13848
assa	-13849
idan	-13850
oted	-13851
pull	-13852
reme	-13853
▁184	-13854
▁265	-13855
▁5.1	-13856
▁514	-13857
▁Inn	-13858
▁JUN	-13859
▁MID	-13860
▁Pop	-13861
▁Rpr	-13862
▁TER	-13863
▁Wyn	-13864
rouck	-13865
▁2001	-13866
▁DEEP	-13867
▁FOOT	-13868
▁KEPT	-13869
▁SUNS	-13870
▁Talk	-13871
▁pong	-13872
OINTED	-13873
ovetop	-13874
▁07012	-13875
▁08740	-13876
▁COMBO	-13877
▁Olymp	-13878
▁Ponds	-13879
▁SEREN	-13880
▁Villa	-13881
▁bsmnt	-13882
▁seize	-13883
ultiple	-13884
▁Albert	-13885
▁Apprec	-13886
▁Repair	-13887
▁WITHIN	-13888
▁golden	-13889
▁sensor	-13890
▁ENDLESS	-13891
▁excited	-13892
▁passive	-13893
▁FIXTURES	-13894
▁Longwood	-13895
▁ambience	-13896
▁rainfall	-13897
▁Elevation	-13898
▁Hasbrouck	-13899
▁Panoramic	-13900
▁RENOVATION	-13901
▁Waterproof	-13902
▁attachment	-13903
▁waterfalls	-13904
BATH	-13905
HOME	-13906
RACT	-13907
come	-13908
fish	-13909
▁186	-13910
▁236	-13911
▁30,	-13912
▁GAL	-13913
▁Mus	-13914
beach	-13915
tedly	-13916
▁BULK	-13917
▁COFF	-13918
▁Tiki	-13919
▁seem	-13920
▁wear	-13921
Closet	-13922
direct	-13923
▁07108	-13924
▁About	-13925
▁Kraft	-13926
▁MONEY	-13927
▁SHOWS	-13928
▁basin	-13929
▁claim	-13930
▁couch	-13931
▁glimp	-13932
▁renew	-13933
▁telev	-13934
Winning	-13935
atively	-13936
▁Advent	-13937
▁Brooks	-13938
▁Eating	-13939
▁determ	-13940
▁lifegu	-13941
▁recogn	-13942
▁signed	-13943
▁unlock	-13944
DAUGHTER	-13945
gorgeous	-13946
oubtedly	-13947
▁AWESOME	-13948
▁Capital	-13949
▁Forrest	-13950
▁Garbage	-13951
▁Instant	-13952
▁beaming	-13953
▁doctors	-13954
▁outback	-13955
▁Railings	-13956
▁Roebling	-13957
▁moderate	-13958
▁sporting	-13959
▁comprises	-13960
▁visualize	-13961
▁introduces	-13962
▁IMPROVEMENT	-13963
▁Whittingham	-13964
▁dehumidifier	-13965
▁encompassing	-13966
▁Opportunities	-13967
▁POSSIBILITIES	-13968
▁comprehensive	-13969
▁;	-13970
COM	-13971
OSE	-13972
SUN	-13973
els	-13974
kel	-13975
▁Au	-13976
▁Si	-13977
iano	-13978
move	-13979
▁Web	-13980
▁jaw	-13981
▁www	-13982
Floor	-13983
WATER	-13984
chase	-13985
▁0766	-13986
▁Bird	-13987
▁Cave	-13988
▁conv	-13989
▁docs	-13990
munity	-13991
pickle	-13992
screen	-13993
▁07416	-13994
▁08827	-13995
▁Baker	-13996
▁Flows	-13997
▁Ovens	-13998
▁PEACE	-13999
▁SOLID	-14000
▁Tiles	-14001
▁apron	-14002
▁hands	-14003
▁loans	-14004
▁Airbnb	-14005
▁deluxe	-14006
▁frames	-14007
▁useful	-14008
▁Freddie	-14009
▁GUTTERS	-14010
▁Harwood	-14011
▁RETREAT	-14012
▁Remarks	-14013
▁holding	-14014
▁revital	-14015
▁veranda	-14016
▁Absolute	-14017
▁Lifetime	-14018
▁measures	-14019
▁Sparkling	-14020
▁Turnberry	-14021
▁Riverfront	-14022
▁Riverwinds	-14023
▁desireable	-14024
▁Entertainer	-14025
▁Retractable	-14026
▁generations	-14027
▁CONDITIONING	-14028
▁connectivity	-14029
▁architecturally	-14030
FL	-14031
HT	-14032
PH	-14033
we	-14034
FUL	-14035
WIC	-14036
▁et	-14037
▁oo	-14038
Easy	-14039
Furn	-14040
ahic	-14041
aren	-14042
elot	-14043
gall	-14044
iral	-14045
isle	-14046
▁2.2	-14047
▁417	-14048
▁FEE	-14049
▁Ful	-14050
▁JET	-14051
Style	-14052
extra	-14053
▁Dick	-14054
▁Fees	-14055
▁Hanc	-14056
▁Pole	-14057
▁STOP	-14058
▁Sqft	-14059
▁THER	-14060
▁WICs	-14061
▁Yale	-14062
▁fasc	-14063
biking	-14064
quahic	-14065
▁2008.	-14066
▁INSUL	-14067
▁Winch	-14068
▁adequ	-14069
▁cases	-14070
▁focus	-14071
▁roofs	-14072
VAULTED	-14073
▁Arthur	-14074
▁Beamed	-14075
▁FRIDAY	-14076
▁Landis	-14077
▁Milton	-14078
▁PALLAD	-14079
▁lushly	-14080
▁seated	-14081
▁sodded	-14082
stopping	-14083
▁Butlers	-14084
▁defined	-14085
▁errands	-14086
▁roughed	-14087
▁success	-14088
▁calendar	-14089
▁expected	-14090
▁Allendale	-14091
▁Millbrook	-14092
▁Weequahic	-14093
▁neutrally	-14094
▁thoroughf	-14095
▁Sturbridge	-14096
▁industrial	-14097
▁supplement	-14098
▁Immediately	-14099
▁conservation	-14100
▁waterproofing	-14101
spa	-14102
thl	-14103
▁4'	-14104
HVAC	-14105
URED	-14106
otta	-14107
roud	-14108
▁166	-14109
▁247	-14110
▁507	-14111
▁515	-14112
▁JPM	-14113
▁Wey	-14114
▁drs	-14115
▁hel	-14116
imber	-14117
ufact	-14118
▁ASAP	-14119
▁BARN	-14120
▁Chad	-14121
▁Days	-14122
▁HOLE	-14123
▁Lark	-14124
▁Neat	-14125
▁WINE	-14126
▁peak	-14127
▁skis	-14128
▁tidy	-14129
iented	-14130
ingled	-14131
ogress	-14132
▁07064	-14133
▁07850	-14134
▁07932	-14135
▁07936	-14136
▁ALONG	-14137
▁Peter	-14138
▁Quail	-14139
▁SUNNY	-14140
▁Stage	-14141
▁inset	-14142
▁pharm	-14143
thletic	-14144
▁Fields	-14145
▁Greene	-14146
▁Theres	-14147
▁Wesley	-14148
▁myriad	-14149
▁stereo	-14150
▁toasty	-14151
▁Bilevel	-14152
▁borough	-14153
▁ferries	-14154
▁realtor	-14155
producing	-14156
▁Holidays	-14157
▁JPMorgan	-14158
▁Tuckahoe	-14159
▁backdoor	-14160
▁parkland	-14161
▁premiere	-14162
▁towering	-14163
▁variance	-14164
▁wetlands	-14165
▁Adventure	-14166
▁Claremont	-14167
▁Completed	-14168
▁balusters	-14169
▁compliant	-14170
▁maintains	-14171
▁Remarkable	-14172
▁contribute	-14173
▁impressions	-14174
▁personality	-14175
.9	-14176
18,	-14177
aco	-14178
ili	-14179
osa	-14180
sub	-14181
▁Ll	-14182
▁24-	-14183
▁6.5	-14184
▁612	-14185
▁Gen	-14186
▁MAH	-14187
▁Nar	-14188
▁die	-14189
▁shy	-14190
/2025	-14191
inted	-14192
▁NOOK	-14193
▁SREC	-14194
▁Seat	-14195
CUSTOM	-14196
carpet	-14197
▁07750	-14198
▁earth	-14199
▁group	-14200
▁parts	-14201
eworthy	-14202
▁Miller	-14203
▁PHOTOS	-14204
▁closer	-14205
▁dentil	-14206
▁medall	-14207
▁sights	-14208
▁values	-14209
▁Baldwin	-14210
▁HEIGHTS	-14211
▁Proceed	-14212
▁biggest	-14213
▁Sheridan	-14214
▁Speaking	-14215
▁artistic	-14216
▁fireside	-14217
▁pinnacle	-14218
▁watering	-14219
▁Homeowner	-14220
▁Mountains	-14221
▁downtowns	-14222
▁Modernized	-14223
▁graciously	-14224
▁undoubtedly	-14225
/7	-14226
3-	-14227
me	-14228
Bed	-14229
DRY	-14230
ils	-14231
oul	-14232
▁1&	-14233
apor	-14234
lest	-14235
okes	-14236
rank	-14237
▁550	-14238
▁HWY	-14239
▁fig	-14240
Steel	-14241
aport	-14242
ector	-14243
ikely	-14244
▁HEAD	-14245
▁HGTV	-14246
▁NEXT	-14247
▁TCNJ	-14248
▁ende	-14249
▁08741	-14250
▁COURT	-14251
▁shall	-14252
Jacuzzi	-14253
▁ALMOST	-14254
▁Annual	-14255
▁Ogdens	-14256
▁Rustic	-14257
▁Update	-14258
▁indulg	-14259
▁skylit	-14260
▁DELIGHT	-14261
▁Opening	-14262
▁Roberts	-14263
▁Stained	-14264
▁VIRTUAL	-14265
▁bespoke	-14266
▁harmony	-14267
▁realize	-14268
▁BULKHEAD	-14269
▁Magazine	-14270
▁blissful	-14271
▁boarding	-14272
▁brightly	-14273
▁dazzling	-14274
▁overflow	-14275
▁financial	-14276
▁reputable	-14277
▁Centennial	-14278
▁Farrington	-14279
▁Ogdensburg	-14280
▁landscapes	-14281
▁remodeling	-14282
▁establishments	-14283
!,	-14284
pen	-14285
zer	-14286
▁Ey	-14287
AINT	-14288
Unit	-14289
anse	-14290
call	-14291
tree	-14292
▁521	-14293
▁Ang	-14294
▁BOA	-14295
▁BOW	-14296
▁Bun	-14297
▁Jos	-14298
▁Rio	-14299
▁asp	-14300
▁mil	-14301
FIELD	-14302
GREAT	-14303
olded	-14304
veill	-14305
▁195.	-14306
▁Bass	-14307
▁Benn	-14308
▁CARD	-14309
▁Duct	-14310
▁Sant	-14311
▁slow	-14312
Plenty	-14313
ooming	-14314
▁07034	-14315
▁2008,	-14316
▁CHAIR	-14317
▁Fells	-14318
▁Guard	-14319
▁PAVED	-14320
▁Scott	-14321
▁UNTIL	-14322
▁regul	-14323
nursery	-14324
▁Cabana	-14325
▁budget	-14326
▁cookie	-14327
▁ladder	-14328
▁poised	-14329
▁tongue	-14330
ipurpose	-14331
▁Hamburg	-14332
▁accomod	-14333
▁attract	-14334
▁retains	-14335
▁unfolds	-14336
veillance	-14337
▁Elevated	-14338
▁Occupied	-14339
▁Sidewalk	-14340
▁Spanning	-14341
▁Welcomes	-14342
▁babbling	-14343
▁repaired	-14344
▁Bluetooth	-14345
▁playhouse	-14346
▁Candlewood	-14347
▁Fiberglass	-14348
▁Summertime	-14349
▁Winchester	-14350
▁festivities	-14351
▁independent	-14352
Am	-14353
DO	-14354
LA	-14355
~~	-14356
00,	-14357
ews	-14358
han	-14359
mile	-14360
▁1-3	-14361
▁1.6	-14362
▁12,	-14363
▁20-	-14364
▁241	-14365
▁509	-14366
graph	-14367
inger	-14368
oline	-14369
urned	-14370
▁rugs	-14371
▁volt	-14372
ranean	-14373
rupted	-14374
▁07055	-14375
▁2007,	-14376
▁PREST	-14377
▁addit	-14378
▁kinds	-14379
▁sites	-14380
HIGHEST	-14381
▁Ashley	-14382
▁BETTER	-14383
▁Colony	-14384
▁GALORE	-14385
▁Irving	-14386
▁Planet	-14387
▁Ramble	-14388
▁adorns	-14389
▁batten	-14390
▁exempl	-14391
▁mesmer	-14392
▁steady	-14393
▁tailor	-14394
▁tender	-14395
expected	-14396
surround	-14397
▁Benefit	-14398
▁Collins	-14399
▁DEVELOP	-14400
▁Perrine	-14401
▁Skybell	-14402
▁enabled	-14403
▁ELEVATOR	-14404
▁handrail	-14405
▁northern	-14406
▁AFFORDABLE	-14407
▁Appreciate	-14408
▁Thoughtful	-14409
▁evergreens	-14410
',	-14411
gs	-14412
Eat	-14413
REM	-14414
eft	-14415
ATCH	-14416
Appr	-14417
asks	-14418
ords	-14419
▁192	-14420
▁242	-14421
▁60'	-14422
▁605	-14423
▁Bid	-14424
▁Fix	-14425
▁Hov	-14426
▁Mey	-14427
▁Tem	-14428
▁bic	-14429
▁deg	-14430
▁pen	-14431
BUILT	-14432
leigh	-14433
overn	-14434
usrol	-14435
▁2003	-14436
▁Cham	-14437
▁Desc	-14438
▁Hwys	-14439
▁Lena	-14440
▁Marc	-14441
▁flue	-14442
▁team	-14443
▁wifi	-14444
merald	-14445
scaped	-14446
▁07033	-14447
▁08809	-14448
▁Ellis	-14449
▁pursu	-14450
▁queen	-14451
▁roots	-14452
Burning	-14453
▁Agents	-14454
▁BREATH	-14455
▁CORIAN	-14456
▁Shield	-14457
▁suburb	-14458
▁tradit	-14459
▁Fairfax	-14460
▁Openers	-14461
▁Pricing	-14462
▁Steeple	-14463
▁bidding	-14464
▁uninter	-14465
▁ANDERSON	-14466
▁Congress	-14467
▁OVERLOOK	-14468
▁Palisade	-14469
▁Roadways	-14470
▁Softener	-14471
▁TANKLESS	-14472
▁prospect	-14473
▁seasoned	-14474
▁Automatic	-14475
▁Commodore	-14476
▁Sanctuary	-14477
▁beachside	-14478
▁reservoir	-14479
▁HIGHLIGHTS	-14480
▁oceanfront	-14481
▁instructions	-14482
Nd	-14483
609	-14484
imb	-14485
▁8.	-14486
▁ET	-14487
LLED	-14488
▁22.	-14489
▁246	-14490
▁606	-14491
▁Bec	-14492
▁HER	-14493
▁PAY	-14494
▁Pav	-14495
▁SQU	-14496
▁Tul	-14497
▁Who	-14498
▁fls	-14499
(2019	-14500
faced	-14501
ients	-14502
iller	-14503
ludes	-14504
▁DOCK	-14505
▁LAWN	-14506
▁LUSH	-14507
▁Quay	-14508
▁held	-14509
▁skip	-14510
▁stur	-14511
atible	-14512
entory	-14513
fields	-14514
▁Delay	-14515
▁Lloyd	-14516
▁flush	-14517
ershing	-14518
located	-14519
▁Warmth	-14520
▁bronze	-14521
▁experi	-14522
▁speaks	-14523
▁spills	-14524
iability	-14525
▁Between	-14526
▁HOLIDAY	-14527
▁defines	-14528
▁expanse	-14529
▁Military	-14530
▁Prestige	-14531
▁Baltusrol	-14532
▁COMMUTERS	-14533
▁hardwired	-14534
▁definition	-14535
▁additionally	-14536
▁uninterrupted	-14537
IX	-14538
hr	-14539
ko	-14540
ECC	-14541
▁XL	-14542
ATIC	-14543
VERS	-14544
erey	-14545
ilac	-14546
oret	-14547
went	-14548
▁24,	-14549
▁422	-14550
▁Pel	-14551
▁tun	-14552
Buyer	-14553
EMPOR	-14554
READY	-14555
Water	-14556
avors	-14557
buyer	-14558
ummer	-14559
▁CHEF	-14560
▁Mult	-14561
▁Russ	-14562
▁Stat	-14563
▁Whip	-14564
ANDING	-14565
gallon	-14566
▁Arden	-14567
▁Glory	-14568
▁PARAD	-14569
▁Proud	-14570
▁Sizes	-14571
▁eager	-14572
▁feast	-14573
▁honed	-14574
furnace	-14575
landers	-14576
▁Choose	-14577
▁Fredon	-14578
▁Prefer	-14579
▁ascend	-14580
▁promin	-14581
▁sturdy	-14582
▁Boaters	-14583
▁Enchant	-14584
▁Farmers	-14585
▁Finance	-14586
▁Melrose	-14587
▁Western	-14588
▁burners	-14589
▁pilings	-14590
▁replete	-14591
▁Montrose	-14592
▁Pershing	-14593
▁alluring	-14594
▁attorney	-14595
▁savoring	-14596
▁stovetop	-14597
▁unexpected	-14598
▁accessories	-14599
▁Exceptionally	-14600
PE	-14601
'',	-14602
LES	-14603
oys	-14604
val	-14605
▁JC	-14606
▁OB	-14607
Your	-14608
make	-14609
▁(1)	-14610
▁5/6	-14611
▁522	-14612
▁75'	-14613
▁Eld	-14614
▁Sut	-14615
▁Tor	-14616
▁ord	-14617
After	-14618
▁JUNE	-14619
▁SCEN	-14620
▁SERV	-14621
penser	-14622
▁08867	-14623
▁ALLOW	-14624
▁Harry	-14625
▁Since	-14626
▁guide	-14627
▁spice	-14628
▁trims	-14629
ATIONAL	-14630
apanese	-14631
▁(2014)	-14632
▁Legacy	-14633
▁effect	-14634
EMPORARY	-14635
▁Hunters	-14636
▁culture	-14637
▁triplex	-14638
▁Academic	-14639
▁Accepted	-14640
▁Campbell	-14641
▁Georgian	-14642
▁Mornings	-14643
▁Weymouth	-14644
▁Winfield	-14645
▁underwent	-14646
▁Wilmington	-14647
▁expressway	-14648
▁customizing	-14649
▁envisioning	-14650
▁$$	-14651
▁5'	-14652
▁BI	-14653
▁VA	-14654
Move	-14655
alea	-14656
olly	-14657
rdwd	-14658
▁11-	-14659
▁428	-14660
▁5-6	-14661
▁506	-14662
▁608	-14663
▁FEW	-14664
▁PUT	-14665
▁Pul	-14666
▁Sen	-14667
Stone	-14668
Study	-14669
adium	-14670
ourse	-14671
▁280,	-14672
▁ARCH	-14673
▁Dors	-14674
▁Mile	-14675
▁SWIM	-14676
▁pits	-14677
▁tubs	-14678
iffany	-14679
▁07046	-14680
▁07105	-14681
▁07481	-14682
▁2009.	-14683
▁APART	-14684
▁Items	-14685
▁Larch	-14686
▁SMART	-14687
▁assum	-14688
▁(2013)	-14689
▁Barton	-14690
▁DISAPP	-14691
▁During	-14692
▁Greens	-14693
▁Revere	-14694
▁Turtle	-14695
▁Zoning	-14696
▁sanded	-14697
▁senior	-14698
▁Besides	-14699
▁Conting	-14700
▁Mallard	-14701
▁intends	-14702
▁picnics	-14703
▁snuggle	-14704
▁Delivery	-14705
▁Flanders	-14706
▁PARADISE	-14707
▁medicine	-14708
decorative	-14709
▁Saltwater	-14710
▁Weatherby	-14711
▁Yardville	-14712
▁expensive	-14713
▁otherwise	-14714
▁compatible	-14715
▁reconfigured	-14716
ERV	-14717
▁Ep	-14718
BORO	-14719
Best	-14720
CENT	-14721
Down	-14722
acus	-14723
atta	-14724
rets	-14725
▁22'	-14726
▁261	-14727
▁511	-14728
▁523	-14729
▁537	-14730
▁604	-14731
▁708	-14732
▁HOW	-14733
▁Jay	-14734
▁Kil	-14735
▁Lor	-14736
▁PIT	-14737
▁ooz	-14738
amper	-14739
eived	-14740
itten	-14741
ostal	-14742
owers	-14743
▁3400	-14744
▁Ches	-14745
▁FEEL	-14746
▁Link	-14747
▁TREE	-14748
▁pear	-14749
arable	-14750
undred	-14751
▁07420	-14752
▁07522	-14753
▁08802	-14754
▁08825	-14755
▁2007.	-14756
▁Cover	-14757
▁Dunes	-14758
▁Inver	-14759
▁PLANK	-14760
▁lunch	-14761
▁overs	-14762
▁reduc	-14763
▁treel	-14764
whether	-14765
windows	-14766
▁Abacus	-14767
▁IMPECC	-14768
▁Murphy	-14769
▁coated	-14770
▁freely	-14771
▁prohib	-14772
detached	-14773
▁BACKING	-14774
▁BALCONY	-14775
▁Califon	-14776
▁Exposed	-14777
▁Harvest	-14778
▁Vintage	-14779
▁classes	-14780
▁immerse	-14781
▁Sunshine	-14782
▁Woodmere	-14783
▁Yorktown	-14784
▁adequate	-14785
iterranean	-14786
▁butterfly	-14787
▁cascading	-14788
▁identical	-14789
▁Brandywine	-14790
▁PICKLEBALL	-14791
▁guidelines	-14792
▁relocation	-14793
▁television	-14794
▁PROFESSIONAL	-14795
▁majestically	-14796
▁disappointments	-14797
5+	-14798
10'	-14799
Bar	-14800
▁FA	-14801
▁fa	-14802
▁hy	-14803
FORD	-14804
IANT	-14805
IEND	-14806
Very	-14807
oped	-14808
▁243	-14809
▁331	-14810
▁503	-14811
▁607	-14812
▁EHT	-14813
▁Ket	-14814
▁PUM	-14815
▁YRS	-14816
▁rob	-14817
orned	-14818
▁Bona	-14819
▁Carn	-14820
▁Fest	-14821
▁MILL	-14822
▁Ryan	-14823
▁TOLL	-14824
▁Than	-14825
▁fool	-14826
▁rise	-14827
Center	-14828
ommend	-14829
▁(2009	-14830
▁08810	-14831
▁2006,	-14832
▁CANCE	-14833
▁Movie	-14834
▁Seton	-14835
OUTDOOR	-14836
Sitting	-14837
▁Charle	-14838
▁Rarely	-14839
▁SQUARE	-14840
▁commit	-14841
▁fusion	-14842
Basement	-14843
ountains	-14844
▁Rebuilt	-14845
▁Seaport	-14846
▁reasons	-14847
▁subzero	-14848
▁Atlantis	-14849
▁Cardinal	-14850
▁Enjoying	-14851
▁Railroad	-14852
▁Serviced	-14853
▁Welcomed	-14854
▁balances	-14855
▁configur	-14856
▁drinking	-14857
▁operated	-14858
▁particip	-14859
▁workroom	-14860
iversities	-14861
▁Crestview	-14862
▁Exclusive	-14863
▁Executive	-14864
▁banquette	-14865
▁Relaxation	-14866
▁associated	-14867
▁horseshoes	-14868
▁separating	-14869
▁showerhead	-14870
▁subdivided	-14871
▁conventional	-14872
▁peacefulness	-14873
SL	-14874
tl	-14875
20,	-14876
50/	-14877
dam	-14878
edi	-14879
AKER	-14880
INDS	-14881
elly	-14882
knit	-14883
osen	-14884
▁193	-14885
▁25,	-14886
▁258	-14887
▁259	-14888
▁460	-14889
▁701	-14890
▁Sel	-14891
▁Vib	-14892
▁ber	-14893
arten	-14894
▁Bent	-14895
▁MSTR	-14896
▁Tang	-14897
IGIOUS	-14898
Quartz	-14899
versed	-14900
▁07094	-14901
▁Looks	-14902
▁Maint	-14903
▁Revel	-14904
▁Rider	-14905
▁Roman	-14906
▁Sided	-14907
▁Stack	-14908
▁asset	-14909
▁famed	-14910
▁inlaw	-14911
▁niche	-14912
▁shiny	-14913
Furnace	-14914
aintree	-14915
▁AWAITS	-14916
▁Fulton	-14917
▁splits	-14918
▁subsid	-14919
▁waking	-14920
Situated	-14921
ibraries	-14922
skylight	-14923
▁Augusta	-14924
▁Webster	-14925
▁Weekend	-14926
▁dimmers	-14927
▁receive	-14928
▁Monterey	-14929
▁REQUIRED	-14930
▁SKYLIGHT	-14931
▁Seasonal	-14932
▁Tasteful	-14933
▁enviable	-14934
▁espresso	-14935
▁excluded	-14936
▁CANCELLED	-14937
▁accessing	-14938
▁stretches	-14939
▁Ramblewood	-14940
▁sidelights	-14941
▁Wrightstown	-14942
▁measurements	-14943
16.	-14944
Sub	-14945
TOP	-14946
mas	-14947
oid	-14948
▁Bd	-14949
▁Rh	-14950
/21.	-14951
ANCY	-14952
SHOP	-14953
deep	-14954
ileg	-14955
inse	-14956
liff	-14957
▁10+	-14958
▁251	-14959
▁34,	-14960
▁419	-14961
▁502	-14962
▁ETC	-14963
▁Ens	-14964
▁Suc	-14965
▁Tav	-14966
▁sys	-14967
apsul	-14968
▁sort	-14969
Photos	-14970
etwood	-14971
ounter	-14972
umping	-14973
▁07885	-14974
▁MARCH	-14975
▁calls	-14976
▁nooks	-14977
▁radon	-14978
▁Colors	-14979
▁Dreams	-14980
▁Knight	-14981
▁Lounge	-14982
▁Prince	-14983
▁beside	-14984
▁blooms	-14985
▁dances	-14986
▁makeup	-14987
▁walled	-14988
▁worthy	-14989
LOCATION	-14990
ergarten	-14991
▁CONVERT	-14992
▁carries	-14993
▁contain	-14994
▁Accommod	-14995
▁Japanese	-14996
▁Switches	-14997
▁manufact	-14998
▁BOARDWALK	-14999
▁Dartmouth	-15000
▁endeavors	-15001
▁silestone	-15002
▁sunsoaked	-15003
▁Accessible	-15004
refrigerator	-15005
▁Furthermore	-15006
▁handicapped	-15007
▁CONTEMPORARY	-15008
▁coordinating	-15009
▁purification	-15010
FER	-15011
UGE	-15012
eca	-15013
oat	-15014
aunt	-15015
lane	-15016
▁$14	-15017
▁181	-15018
▁196	-15019
▁3.2	-15020
▁426	-15021
▁615	-15022
▁620	-15023
▁CIR	-15024
▁Hal	-15025
▁TPK	-15026
EMBER	-15027
Front	-15028
casun	-15029
edale	-15030
toned	-15031
▁130.	-15032
▁Dell	-15033
▁FISH	-15034
▁GALL	-15035
▁LESS	-15036
▁Left	-15037
▁RAIL	-15038
▁Wick	-15039
▁core	-15040
▁prec	-15041
▁rose	-15042
enberg	-15043
ostalg	-15044
▁08562	-15045
▁ABOUT	-15046
▁Equal	-15047
▁FOUND	-15048
▁Lewis	-15049
▁Steam	-15050
▁Tenby	-15051
▁heats	-15052
▁lever	-15053
▁noise	-15054
closure	-15055
ossible	-15056
ributes	-15057
ultural	-15058
▁Choice	-15059
▁Helmet	-15060
▁Museum	-15061
▁Target	-15062
▁groove	-15063
▁likely	-15064
othermal	-15065
[...]
